{"<s>":0,"</s>":1,"<usr>":2,"<pad>":3,"<sys>":4,"<unk>":5,"<mask>":6,"<unused0>":7,"<unused1>":8,"<unused2>":9,"<unused3>":10,"<unused4>":11,"<unused5>":12,"<unused6>":13,"<unused7>":14,"<unused8>":15,"<unused9>":16,"<unused10>":17,"<unused11>":18,"<unused12>":19,"<unused13>":20,"<unused14>":21,"<unused15>":22,"<unused16>":23,"<unused17>":24,"<unused18>":25,"<unused19>":26,"<unused20>":27,"<unused21>":28,"<unused22>":29,"<unused23>":30,"<unused24>":31,"<unused25>":32,"<unused26>":33,"<unused27>":34,"<unused28>":35,"<unused29>":36,"<unused30>":37,"<unused31>":38,"<unused32>":39,"<unused33>":40,"<unused34>":41,"<unused35>":42,"<unused36>":43,"<unused37>":44,"<unused38>":45,"<unused39>":46,"<unused40>":47,"<unused41>":48,"<unused42>":49,"<unused43>":50,"<unused44>":51,"<unused45>":52,"<unused46>":53,"<unused47>":54,"<unused48>":55,"<unused49>":56,"<unused50>":57,"<unused51>":58,"<unused52>":59,"<unused53>":60,"<unused54>":61,"<unused55>":62,"<unused56>":63,"<unused57>":64,"<unused58>":65,"<unused59>":66,"<unused60>":67,"<unused61>":68,"<unused62>":69,"<unused63>":70,"<unused64>":71,"<unused65>":72,"<unused66>":73,"<unused67>":74,"<unused68>":75,"<unused69>":76,"<unused70>":77,"<unused71>":78,"<unused72>":79,"<unused73>":80,"<unused74>":81,"<unused75>":82,"<unused76>":83,"<unused77>":84,"<unused78>":85,"<unused79>":86,"<unused80>":87,"<unused81>":88,"<unused82>":89,"<unused83>":90,"<unused84>":91,"<unused85>":92,"<unused86>":93,"<unused87>":94,"<unused88>":95,"<unused89>":96,"<unused90>":97,"<unused91>":98,"<unused92>":99,"<unused93>":100,"<unused94>":101,"<unused95>":102,"<unused96>":103,"<unused97>":104,"<unused98>":105,"<unused99>":106,":-)":107,":)":108,",-)":109,"(-:":110,"(:-)":111,"(:-(":112,",-}":113,"8-O":114,"'-)":115,":-#":116,":-*":117,":-/":118,":->":119,":-@":120,":-d":121,":-V":122,":-X":123,":-\\":124,":-]":125,";-(":126,">;->":127,";^)":128,"%-)":129,"):-(":130,"3:]":131,":-&":132,"8:-)":133,":-)8<":134,":-O":135,":-6":136,"+:-)":137,"O:-)":138,":-<":139,":-?":140,":-E":141,":-Q":142,":-}X":143,":-[":144,":-a":145,":-{":146,":-{}":147,":^)":148,"<:-l":149,":=)":150,">:->":151,">:-l":152,"@:-)":153,"@:-}":154,"C=:-)":155,"X:-)":156,"[:-)":157,"[:]":158,"{:-)":159,"l^o":160,"}:^#)":161,":-(=)":162,"O-)":163,":-3":164,": =":165,":-\"":166,"P-(":167,"?-(":168,"d:-)":169,":8)":170,":-7":171,"):-)":172,":/\\)":173,"8(:-)":174,"([(":175,":-(*)":176,"&-l":177,":-e":178,":(":179,":,(":180,":-(":181,":-P":182,":-S":183,":-C":184,":-r":185,":-t":186,":-W":187,"X-(":188,"l-O":189,"l:-O":190,"$-)":191,":-!":192,":----}":193,"=:-)":194,"=:-(":195,"3:[":196,"8<:-)":197,":#)":198,"8-#":199,"B-)":200,"8-)":201,"|-(":202,"H-)":203,"]-I":204,"V^J":205,"+-(":206,"~:-P":207,"`'":208,"L-P":209,"BI":210,"O |":211,"^^":212,"ㅜㅜ":213,"ㅠㅠ":214,"ㅡㅡ":215,"😀":216,"😃":217,"😄":218,"😁":219,"😆":220,"😅":221,"🤣":222,"😂":223,"🙂":224,"🙃":225,"😉":226,"😊":227,"😇":228,"\t":229,"\n":230,"\u001a":231,"!":232,"\"":233,"#":234,"$":235,"%":236,"&":237,"'":238,"(":239,")":240,"*":241,"+":242,",":243,"-":244,".":245,"/":246,"0":247,"1":248,"2":249,"3":250,"4":251,"5":252,"6":253,"7":254,"8":255,"9":256,":":257,";":258,"<":259,"=":260,">":261,"?":262,"@":263,"A":264,"B":265,"C":266,"D":267,"E":268,"F":269,"G":270,"H":271,"I":272,"J":273,"K":274,"L":275,"M":276,"N":277,"O":278,"P":279,"Q":280,"R":281,"S":282,"T":283,"U":284,"V":285,"W":286,"X":287,"Y":288,"Z":289,"[":290,"\\":291,"]":292,"^":293,"_":294,"`":295,"a":296,"b":297,"c":298,"d":299,"e":300,"f":301,"g":302,"h":303,"i":304,"j":305,"k":306,"l":307,"m":308,"n":309,"o":310,"p":311,"q":312,"r":313,"s":314,"t":315,"u":316,"v":317,"w":318,"x":319,"y":320,"z":321,"{":322,"|":323,"}":324,"~":325,"":326,"":327,"":328,"":329,"":330,"":331,"":332,"":333,"":334,"":335,"":336,"":337,"":338,"":339,"":340,"":341,"":342,"":343,"":344,"":345,"":346,"":347,"":348,"":349,"":350,"":351,"":352,"":353,"":354,"":355,"":356,"":357,"¡":358,"¢":359,"£":360,"¤":361,"¥":362,"¦":363,"§":364,"©":365,"«":366,"¬":367,"­":368,"®":369,"°":370,"±":371,"¶":372,"·":373,"»":374,"¿":375,"À":376,"Á":377,"Ä":378,"Å":379,"Æ":380,"Ç":381,"È":382,"É":383,"Ê":384,"Ë":385,"Í":386,"Î":387,"Ï":388,"Ð":389,"Ñ":390,"Ò":391,"Ó":392,"Ô":393,"Õ":394,"Ö":395,"×":396,"Ø":397,"Ú":398,"Û":399,"Ü":400,"Ý":401,"Þ":402,"ß":403,"à":404,"á":405,"â":406,"ã":407,"ä":408,"å":409,"æ":410,"ç":411,"è":412,"é":413,"ê":414,"ë":415,"ì":416,"í":417,"î":418,"ï":419,"ð":420,"ñ":421,"ò":422,"ó":423,"ô":424,"õ":425,"ö":426,"÷":427,"ø":428,"ù":429,"ú":430,"û":431,"ü":432,"ý":433,"þ":434,"Ā":435,"ā":436,"Ă":437,"ă":438,"Ą":439,"ą":440,"Ć":441,"ć":442,"Ĉ":443,"ĉ":444,"Ċ":445,"Č":446,"č":447,"Ď":448,"ď":449,"Đ":450,"đ":451,"ē":452,"ĕ":453,"ė":454,"ę":455,"Ě":456,"ě":457,"Ĝ":458,"ĝ":459,"ğ":460,"Ġ":461,"ġ":462,"ĥ":463,"Ħ":464,"ħ":465,"ĩ":466,"ī":467,"ĭ":468,"Į":469,"İ":470,"ı":471,"ĵ":472,"ķ":473,"ĸ":474,"Ĺ":475,"ĺ":476,"Ľ":477,"ľ":478,"Ł":479,"ł":480,"ń":481,"ņ":482,"Ň":483,"ň":484,"Ŋ":485,"ŋ":486,"Ō":487,"ō":488,"ŏ":489,"Ő":490,"ő":491,"œ":492,"Ŕ":493,"ŕ":494,"Ř":495,"ř":496,"Ś":497,"ś":498,"Ŝ":499,"ŝ":500,"Ş":501,"ş":502,"Š":503,"š":504,"Ţ":505,"ţ":506,"Ť":507,"ť":508,"Ŧ":509,"ŧ":510,"ũ":511,"ū":512,"ŭ":513,"Ů":514,"ů":515,"ű":516,"ų":517,"ŵ":518,"ŷ":519,"Ÿ":520,"Ź":521,"ź":522,"Ż":523,"ż":524,"Ž":525,"ž":526,"ƒ":527,"Ɵ":528,"ơ":529,"ƣ":530,"ư":531,"ƿ":532,"Ǎ":533,"ǎ":534,"Ǐ":535,"ǐ":536,"ǒ":537,"ǔ":538,"Ǚ":539,"ǝ":540,"ǣ":541,"ǧ":542,"ǩ":543,"Ǫ":544,"ǫ":545,"Ǯ":546,"ǯ":547,"Ș":548,"ș":549,"ț":550,"Ȝ":551,"ȝ":552,"Ȟ":553,"ȟ":554,"ȳ":555,"ɐ":556,"ɑ":557,"ɒ":558,"ɔ":559,"ɕ":560,"ə":561,"ɛ":562,"ɜ":563,"ɝ":564,"ɡ":565,"ɣ":566,"ɤ":567,"ɦ":568,"ɨ":569,"ɪ":570,"ɫ":571,"ɬ":572,"ɯ":573,"ɵ":574,"ɶ":575,"ɸ":576,"ɹ":577,"ɾ":578,"ʀ":579,"ʁ":580,"ʂ":581,"ʃ":582,"ʈ":583,"ʊ":584,"ʋ":585,"ʌ":586,"ʎ":587,"ʐ":588,"ʑ":589,"ʒ":590,"ʔ":591,"ʕ":592,"ʙ":593,"ʻ":594,"ʼ":595,"ʾ":596,"ʿ":597,"ˁ":598,"˅":599,"ˇ":600,"ˈ":601,"ˊ":602,"ˋ":603,"ˌ":604,"ː":605,"́":606,"̃":607,"̆":608,"̇":609,"̈":610,"̊":611,"̋":612,"̍":613,"̝":614,"̧":615,"̨":616,"̩":617,"̯":618,"̲":619,"̴":620,"͡":621,"Ά":622,"Έ":623,"Ί":624,"Ύ":625,"Ώ":626,"ΐ":627,"Α":628,"Β":629,"Γ":630,"Δ":631,"Ε":632,"Ζ":633,"Η":634,"Θ":635,"Ι":636,"Κ":637,"Λ":638,"Μ":639,"Ν":640,"Ξ":641,"Ο":642,"Π":643,"Ρ":644,"Σ":645,"Τ":646,"Υ":647,"Φ":648,"Χ":649,"Ψ":650,"Ω":651,"ά":652,"έ":653,"ή":654,"ί":655,"α":656,"β":657,"γ":658,"δ":659,"ε":660,"ζ":661,"η":662,"θ":663,"ι":664,"κ":665,"λ":666,"μ":667,"ν":668,"ξ":669,"ο":670,"π":671,"ρ":672,"ς":673,"σ":674,"τ":675,"υ":676,"φ":677,"χ":678,"ψ":679,"ω":680,"ϊ":681,"ό":682,"ύ":683,"ώ":684,"Ϝ":685,"Ѐ":686,"Ё":687,"Є":688,"І":689,"Ї":690,"Ј":691,"Њ":692,"Ћ":693,"Ў":694,"А":695,"Б":696,"В":697,"Г":698,"Д":699,"Е":700,"Ж":701,"З":702,"И":703,"Й":704,"К":705,"Л":706,"М":707,"Н":708,"О":709,"П":710,"Р":711,"С":712,"Т":713,"У":714,"Ф":715,"Х":716,"Ц":717,"Ч":718,"Ш":719,"Щ":720,"Ъ":721,"Ы":722,"Ь":723,"Э":724,"Ю":725,"Я":726,"а":727,"б":728,"в":729,"г":730,"д":731,"е":732,"ж":733,"з":734,"и":735,"й":736,"к":737,"л":738,"м":739,"н":740,"о":741,"п":742,"р":743,"с":744,"т":745,"у":746,"ф":747,"х":748,"ц":749,"ч":750,"ш":751,"щ":752,"ъ":753,"ы":754,"ь":755,"э":756,"ю":757,"я":758,"ѐ":759,"ё":760,"ђ":761,"є":762,"і":763,"ї":764,"ј":765,"њ":766,"ћ":767,"ќ":768,"ў":769,"Ѡ":770,"Ѥ":771,"Ѩ":772,"Ѭ":773,"Ѹ":774,"Ѻ":775,"Ѿ":776,"ғ":777,"Қ":778,"қ":779,"ҟ":780,"ң":781,"Ҥ":782,"ҥ":783,"ү":784,"Ұ":785,"ҳ":786,"Ҷ":787,"ҷ":788,"ҹ":789,"Ӈ":790,"ӈ":791,"ӕ":792,"Ә":793,"ә":794,"Ӡ":795,"ӡ":796,"Ӧ":797,"ӧ":798,"ө":799,"Ӷ":800,"ӷ":801,"Ա":802,"Ի":803,"Հ":804,"Պ":805,"Ս":806,"ա":807,"բ":808,"գ":809,"ե":810,"է":811,"թ":812,"ի":813,"լ":814,"խ":815,"կ":816,"ղ":817,"մ":818,"յ":819,"ն":820,"ո":821,"չ":822,"պ":823,"ռ":824,"ս":825,"վ":826,"տ":827,"ր":828,"ց":829,"ւ":830,"ք":831,"ְ":832,"ֲ":833,"ִ":834,"ֵ":835,"ֶ":836,"ַ":837,"ָ":838,"ֹ":839,"ֻ":840,"ּ":841,"ֿ":842,"ׁ":843,"א":844,"ב":845,"ג":846,"ד":847,"ה":848,"ו":849,"ז":850,"ח":851,"ט":852,"י":853,"ך":854,"כ":855,"ל":856,"ם":857,"מ":858,"ן":859,"נ":860,"ס":861,"ע":862,"ף":863,"פ":864,"ץ":865,"צ":866,"ק":867,"ר":868,"ש":869,"ת":870,"ء":871,"آ":872,"أ":873,"ؤ":874,"إ":875,"ئ":876,"ا":877,"ب":878,"ة":879,"ت":880,"ث":881,"ج":882,"ح":883,"خ":884,"د":885,"ذ":886,"ر":887,"ز":888,"س":889,"ش":890,"ص":891,"ض":892,"ط":893,"ظ":894,"ع":895,"غ":896,"ف":897,"ق":898,"ك":899,"ل":900,"م":901,"ن":902,"ه":903,"و":904,"ى":905,"ي":906,"َ":907,"ُ":908,"ِ":909,"ّ":910,"ْ":911,"ٔ":912,"ٹ":913,"پ":914,"څ":915,"چ":916,"ړ":917,"ښ":918,"ڠ":919,"ڤ":920,"ک":921,"ګ":922,"ڬ":923,"گ":924,"ہ":925,"ی":926,"ۍ":927,"ې":928,"۞":929,"ܗ":930,"ܙ":931,"ܨ":932,"ݢ":933,"ं":934,"अ":935,"इ":936,"उ":937,"ए":938,"क":939,"ख":940,"ग":941,"घ":942,"च":943,"ज":944,"ड":945,"ण":946,"त":947,"थ":948,"द":949,"ध":950,"न":951,"प":952,"ब":953,"भ":954,"म":955,"य":956,"र":957,"ल":958,"व":959,"श":960,"ष":961,"स":962,"ह":963,"ा":964,"ि":965,"ी":966,"ु":967,"ू":968,"े":969,"ो":970,"्":971,"ং":972,"খ":973,"ঘ":974,"ছ":975,"জ":976,"ট":977,"ত":978,"দ":979,"ধ":980,"ন":981,"ব":982,"ভ":983,"ম":984,"য":985,"র":986,"ল":987,"শ":988,"স":989,"হ":990,"়":991,"া":992,"ি":993,"ী":994,"ু":995,"ে":996,"্":997,"இ":998,"க":999,"ச":1000,"ஜ":1001,"ண":1002,"த":1003,"ந":1004,"ன":1005,"ப":1006,"ம":1007,"ய":1008,"ர":1009,"ல":1010,"ள":1011,"வ":1012,"ஷ":1013,"ா":1014,"ி":1015,"ு":1016,"ை":1017,"ோ":1018,"்":1019,"క":1020,"ణ":1021,"ధ":1022,"ప":1023,"ర":1024,"ల":1025,"వ":1026,"ష":1027,"స":1028,"ా":1029,"ి":1030,"ృ":1031,"ే":1032,"్":1033,"ಕ":1034,"ಗ":1035,"ಜ":1036,"ನ":1037,"ಪ":1038,"ಫ":1039,"ಬ":1040,"ಮ":1041,"ಯ":1042,"ರ":1043,"ಲ":1044,"ಸ":1045,"ಾ":1046,"ು":1047,"ೂ":1048,"ೇ":1049,"ೈ":1050,"ೊ":1051,"್":1052,"ං":1053,"අ":1054,"ක":1055,"ග":1056,"ත":1057,"ප":1058,"ම":1059,"ය":1060,"ර":1061,"ල":1062,"ව":1063,"ශ":1064,"්":1065,"ා":1066,"ි":1067,"ී":1068,"ො":1069,"ก":1070,"ค":1071,"ง":1072,"ฉ":1073,"ช":1074,"ซ":1075,"ฐ":1076,"ด":1077,"ต":1078,"ถ":1079,"ท":1080,"ธ":1081,"น":1082,"บ":1083,"ป":1084,"ผ":1085,"พ":1086,"ฟ":1087,"ภ":1088,"ม":1089,"ย":1090,"ร":1091,"ล":1092,"ว":1093,"ศ":1094,"ษ":1095,"ส":1096,"ห":1097,"ฬ":1098,"อ":1099,"ฯ":1100,"ะ":1101,"ั":1102,"า":1103,"ิ":1104,"ี":1105,"ุ":1106,"ู":1107,"เ":1108,"แ":1109,"โ":1110,"ใ":1111,"ไ":1112,"็":1113,"่":1114,"้":1115,"์":1116,"ํ":1117,"ຂ":1118,"ຄ":1119,"ງ":1120,"ດ":1121,"ທ":1122,"ນ":1123,"ລ":1124,"ວ":1125,"ສ":1126,"ຫ":1127,"ອ":1128,"ະ":1129,"ິ":1130,"ີ":1131,"ຸ":1132,"ແ":1133,"་":1134,"ག":1135,"ང":1136,"ད":1137,"ན":1138,"པ":1139,"ཕ":1140,"བ":1141,"མ":1142,"ཚ":1143,"ཟ":1144,"འ":1145,"ར":1146,"ལ":1147,"ས":1148,"ི":1149,"ུ":1150,"ེ":1151,"ོ":1152,"ྒ":1153,"ྗ":1154,"ྨ":1155,"ྱ":1156,"ྲ":1157,"ླ":1158,"က":1159,"င":1160,"ည":1161,"တ":1162,"န":1163,"မ":1164,"ယ":1165,"သ":1166,"အ":1167,"ာ":1168,"ု":1169,"ေ":1170,"း":1171,"်":1172,"ၢ":1173,"ၵ":1174,"ႂ":1175,"ႆ":1176,"ა":1177,"ბ":1178,"გ":1179,"დ":1180,"ე":1181,"ვ":1182,"ზ":1183,"თ":1184,"ი":1185,"კ":1186,"ლ":1187,"მ":1188,"ნ":1189,"ო":1190,"პ":1191,"რ":1192,"ს":1193,"ტ":1194,"უ":1195,"ფ":1196,"ქ":1197,"ღ":1198,"ყ":1199,"შ":1200,"ჩ":1201,"ც":1202,"ძ":1203,"წ":1204,"ხ":1205,"ჲ":1206,"ჳ":1207,"ᄀ":1208,"ᄁ":1209,"ᄂ":1210,"ᄃ":1211,"ᄄ":1212,"ᄅ":1213,"ᄆ":1214,"ᄇ":1215,"ᄈ":1216,"ᄉ":1217,"ᄊ":1218,"ᄋ":1219,"ᄌ":1220,"ᄍ":1221,"ᄎ":1222,"ᄏ":1223,"ᄐ":1224,"ᄑ":1225,"ᄒ":1226,"ᄔ":1227,"ᄕ":1228,"ᄚ":1229,"ᄝ":1230,"ᄞ":1231,"ᄠ":1232,"ᄡ":1233,"ᄢ":1234,"ᄣ":1235,"ᄩ":1236,"ᄫ":1237,"ᄬ":1238,"ᄮ":1239,"ᄴ":1240,"ᄼ":1241,"ᄽ":1242,"ᄾ":1243,"ᄿ":1244,"ᅀ":1245,"ᅅ":1246,"ᅌ":1247,"ᅎ":1248,"ᅏ":1249,"ᅐ":1250,"ᅑ":1251,"ᅔ":1252,"ᅕ":1253,"ᅗ":1254,"ᅘ":1255,"ᅙ":1256,"ᅠ":1257,"ᅡ":1258,"ᅢ":1259,"ᅣ":1260,"ᅤ":1261,"ᅥ":1262,"ᅦ":1263,"ᅧ":1264,"ᅨ":1265,"ᅩ":1266,"ᅪ":1267,"ᅫ":1268,"ᅬ":1269,"ᅭ":1270,"ᅮ":1271,"ᅯ":1272,"ᅰ":1273,"ᅱ":1274,"ᅲ":1275,"ᅳ":1276,"ᅴ":1277,"ᅵ":1278,"ᆋ":1279,"ᆑ":1280,"ᆒ":1281,"ᆖ":1282,"ᆚ":1283,"ᆜ":1284,"ᆝ":1285,"ᆞ":1286,"ᆠ":1287,"ᆡ":1288,"ᆢ":1289,"ᆣ":1290,"ᆨ":1291,"ᆩ":1292,"ᆪ":1293,"ᆫ":1294,"ᆬ":1295,"ᆭ":1296,"ᆮ":1297,"ᆯ":1298,"ᆰ":1299,"ᆱ":1300,"ᆲ":1301,"ᆳ":1302,"ᆴ":1303,"ᆵ":1304,"ᆶ":1305,"ᆷ":1306,"ᆸ":1307,"ᆹ":1308,"ᆺ":1309,"ᆻ":1310,"ᆼ":1311,"ᆽ":1312,"ᆾ":1313,"ᆿ":1314,"ᇌ":1315,"ᇎ":1316,"ᇗ":1317,"ᇙ":1318,"ᇝ":1319,"ᇧ":1320,"ᇰ":1321,"ᇲ":1322,"ሃ":1323,"ህ":1324,"ለ":1325,"ላ":1326,"ል":1327,"ሓ":1328,"ሕ":1329,"መ":1330,"ማ":1331,"ም":1332,"ሥ":1333,"ረ":1334,"ሪ":1335,"ራ":1336,"ር":1337,"ሰ":1338,"ሱ":1339,"ሲ":1340,"ሳ":1341,"ሴ":1342,"ስ":1343,"ቀ":1344,"ቂ":1345,"ቆ":1346,"በ":1347,"ቡ":1348,"ቢ":1349,"ብ":1350,"ተ":1351,"ቲ":1352,"ታ":1353,"ት":1354,"ቶ":1355,"ነ":1356,"ኑ":1357,"ኒ":1358,"ና":1359,"ን":1360,"አ":1361,"ኣ":1362,"ኤ":1363,"እ":1364,"ኦ":1365,"ከ":1366,"ኪ":1367,"ክ":1368,"ኰ":1369,"ኺ":1370,"ዉ":1371,"ዋ":1372,"ው":1373,"ዑ":1374,"ዓ":1375,"ዕ":1376,"ዘ":1377,"ዛ":1378,"ያ":1379,"ይ":1380,"ደ":1381,"ድ":1382,"ዶ":1383,"ጃ":1384,"ገ":1385,"ግ":1386,"ጣ":1387,"ጨ":1388,"ጸ":1389,"ጹ":1390,"ጻ":1391,"ጽ":1392,"፡":1393,"።":1394,"Ꭶ":1395,"Ꮒ":1396,"Ꮕ":1397,"Ꮟ":1398,"Ꮵ":1399,"Ᏻ":1400,"ᐨ":1401,"ᚹ":1402,"ខ":1403,"ត":1404,"េ":1405,"្":1406,"᠊":1407,"ᨣ":1408,"ᨦ":1409,"ᨾ":1410,"ᩤ":1411,"ᩥ":1412,"ᩬ":1413,"ᩮ":1414,"ᩴ":1415,"ḇ":1416,"ḍ":1417,"ḏ":1418,"ḓ":1419,"ḡ":1420,"Ḥ":1421,"ḥ":1422,"ḫ":1423,"ḱ":1424,"ḳ":1425,"ḵ":1426,"ṃ":1427,"ṇ":1428,"ṓ":1429,"ṛ":1430,"Ṣ":1431,"ṣ":1432,"Ṭ":1433,"ṭ":1434,"ṯ":1435,"ẞ":1436,"ạ":1437,"ả":1438,"ấ":1439,"ầ":1440,"ẩ":1441,"ậ":1442,"Ắ":1443,"ắ":1444,"Ằ":1445,"ằ":1446,"Ẳ":1447,"ẳ":1448,"Ẵ":1449,"ẵ":1450,"Ặ":1451,"ặ":1452,"ẹ":1453,"ẻ":1454,"ẽ":1455,"ế":1456,"ề":1457,"ể":1458,"ễ":1459,"ệ":1460,"ỉ":1461,"ị":1462,"ọ":1463,"ỏ":1464,"ố":1465,"ồ":1466,"ổ":1467,"ỗ":1468,"ộ":1469,"ớ":1470,"ờ":1471,"ở":1472,"ợ":1473,"ụ":1474,"ủ":1475,"ứ":1476,"ừ":1477,"ử":1478,"ữ":1479,"ự":1480,"ἀ":1481,"ἄ":1482,"ἅ":1483,"Ἀ":1484,"Ἄ":1485,"ἐ":1486,"ἑ":1487,"ἔ":1488,"Ἐ":1489,"Ἑ":1490,"ἡ":1491,"ἥ":1492,"Ἡ":1493,"ἰ":1494,"ἱ":1495,"ἴ":1496,"ἵ":1497,"ἷ":1498,"Ἰ":1499,"Ἱ":1500,"ὁ":1501,"ὄ":1502,"ὅ":1503,"Ὀ":1504,"Ὁ":1505,"ὐ":1506,"ὑ":1507,"ὒ":1508,"ὔ":1509,"ὕ":1510,"ὡ":1511,"ὤ":1512,"ὥ":1513,"ὰ":1514,"ὲ":1515,"ὴ":1516,"ὶ":1517,"ὸ":1518,"ὺ":1519,"ὼ":1520,"ᾴ":1521,"ᾶ":1522,"ᾷ":1523,"ῃ":1524,"ῄ":1525,"ῆ":1526,"ῖ":1527,"ῡ":1528,"ῦ":1529,"Ῥ":1530,"ῶ":1531,"ῷ":1532,"​":1533,"‌":1534,"‍":1535,"‎":1536,"‏":1537,"‐":1538,"–":1539,"—":1540,"―":1541,"‘":1542,"’":1543,"‚":1544,"‛":1545,"“":1546,"”":1547,"„":1548,"†":1549,"‡":1550,"•":1551,"‣":1552,"‧":1553,"‪":1554,"‬":1555,"‰":1556,"‱":1557,"′":1558,"‹":1559,"›":1560,"※":1561,"‿":1562,"⁄":1563,"⁡":1564,"₩":1565,"€":1566,"℞":1567,"←":1568,"↑":1569,"→":1570,"↓":1571,"↔":1572,"↕":1573,"↖":1574,"↗":1575,"↘":1576,"↙":1577,"↵":1578,"⇄":1579,"⇌":1580,"⇐":1581,"⇒":1582,"⇔":1583,"⇩":1584,"∀":1585,"∂":1586,"∃":1587,"∅":1588,"∆":1589,"∇":1590,"∈":1591,"∉":1592,"∏":1593,"∑":1594,"−":1595,"∕":1596,"∙":1597,"√":1598,"∝":1599,"∞":1600,"∠":1601,"∣":1602,"∥":1603,"∧":1604,"∨":1605,"∩":1606,"∪":1607,"∫":1608,"∮":1609,"∴":1610,"∵":1611,"∼":1612,"∽":1613,"≈":1614,"≒":1615,"≠":1616,"≡":1617,"≢":1618,"≤":1619,"≥":1620,"≪":1621,"≫":1622,"≲":1623,"⊂":1624,"⊃":1625,"⊆":1626,"⊇":1627,"⊊":1628,"⊙":1629,"⊥":1630,"⋄":1631,"⋅":1632,"⋇":1633,"⋯":1634,"⌀":1635,"⌈":1636,"⌋":1637,"⌒":1638,"⌚":1639,"⌜":1640,"⌟":1641,"⍁":1642,"⏱":1643,"␣":1644,"⓶":1645,"⓸":1646,"─":1647,"━":1648,"│":1649,"┃":1650,"┌":1651,"┍":1652,"┎":1653,"┏":1654,"┐":1655,"┑":1656,"┒":1657,"┓":1658,"└":1659,"┕":1660,"┖":1661,"┗":1662,"┘":1663,"┙":1664,"┚":1665,"┛":1666,"├":1667,"┝":1668,"┠":1669,"┣":1670,"┤":1671,"┥":1672,"┧":1673,"┨":1674,"┩":1675,"┪":1676,"┫":1677,"┬":1678,"┯":1679,"┰":1680,"┱":1681,"┳":1682,"┴":1683,"┶":1684,"┷":1685,"┸":1686,"┹":1687,"┺":1688,"┻":1689,"┼":1690,"┽":1691,"┾":1692,"┿":1693,"╂":1694,"╄":1695,"╅":1696,"╇":1697,"╈":1698,"╋":1699,"▁":1700,"█":1701,"▋":1702,"▌":1703,"▒":1704,"■":1705,"□":1706,"▣":1707,"▤":1708,"▥":1709,"▦":1710,"▧":1711,"▨":1712,"▩":1713,"▪":1714,"▮":1715,"▲":1716,"△":1717,"▴":1718,"▶":1719,"▷":1720,"▸":1721,"►":1722,"▼":1723,"▽":1724,"◀":1725,"◁":1726,"◆":1727,"◇":1728,"◈":1729,"◉":1730,"◊":1731,"○":1732,"◎":1733,"●":1734,"◑":1735,"◕":1736,"◦":1737,"◯":1738,"★":1739,"☆":1740,"☉":1741,"☊":1742,"☋":1743,"☌":1744,"☍":1745,"☎":1746,"☏":1747,"☓":1748,"☜":1749,"☞":1750,"☰":1751,"☺":1752,"♀":1753,"♂":1754,"♋":1755,"♎":1756,"♏":1757,"♐":1758,"♑":1759,"♒":1760,"♓":1761,"♠":1762,"♡":1763,"♣":1764,"♤":1765,"♥":1766,"♦":1767,"♧":1768,"♨":1769,"♩":1770,"♪":1771,"♬":1772,"♭":1773,"♯":1774,"⚬":1775,"⛎":1776,"✓":1777,"✔":1778,"❏":1779,"❘":1780,"❚":1781,"❤":1782,"❶":1783,"❷":1784,"❸":1785,"❹":1786,"❺":1787,"❻":1788,"❼":1789,"❾":1790,"❿":1791,"➀":1792,"➁":1793,"➂":1794,"➊":1795,"➋":1796,"➌":1797,"➍":1798,"➎":1799,"➝":1800,"➢":1801,"⟨":1802,"⟩":1803,"⟪":1804,"⟫":1805,"⟶":1806,"⦁":1807,"⧗":1808,"⨼":1809,"ⴰ":1810,"ⴳ":1811,"ⴷ":1812,"ⴻ":1813,"ⴼ":1814,"ⵉ":1815,"ⵎ":1816,"ⵏ":1817,"ⵓ":1818,"ⵔ":1819,"ⵖ":1820,"ⵜ":1821,"ⵟ":1822,"ⵢ":1823,"ⵣ":1824,"、":1825,"。":1826,"〃":1827,"々":1828,"〇":1829,"〈":1830,"〉":1831,"《":1832,"》":1833,"「":1834,"」":1835,"『":1836,"』":1837,"【":1838,"】":1839,"〒":1840,"〓":1841,"〔":1842,"〕":1843,"〖":1844,"〗":1845,"〜":1846,"〮":1847,"〯":1848,"ぁ":1849,"あ":1850,"ぃ":1851,"い":1852,"ぅ":1853,"う":1854,"ぇ":1855,"え":1856,"ぉ":1857,"お":1858,"か":1859,"が":1860,"き":1861,"ぎ":1862,"く":1863,"ぐ":1864,"け":1865,"げ":1866,"こ":1867,"ご":1868,"さ":1869,"ざ":1870,"し":1871,"じ":1872,"す":1873,"ず":1874,"せ":1875,"ぜ":1876,"そ":1877,"ぞ":1878,"た":1879,"だ":1880,"ち":1881,"ぢ":1882,"っ":1883,"つ":1884,"づ":1885,"て":1886,"で":1887,"と":1888,"ど":1889,"な":1890,"に":1891,"ぬ":1892,"ね":1893,"の":1894,"は":1895,"ば":1896,"ぱ":1897,"ひ":1898,"び":1899,"ぴ":1900,"ふ":1901,"ぶ":1902,"ぷ":1903,"へ":1904,"べ":1905,"ぺ":1906,"ほ":1907,"ぼ":1908,"ぽ":1909,"ま":1910,"み":1911,"む":1912,"め":1913,"も":1914,"ゃ":1915,"や":1916,"ゅ":1917,"ゆ":1918,"ょ":1919,"よ":1920,"ら":1921,"り":1922,"る":1923,"れ":1924,"ろ":1925,"ゎ":1926,"わ":1927,"ゐ":1928,"ゑ":1929,"を":1930,"ん":1931,"゚":1932,"ゞ":1933,"ァ":1934,"ア":1935,"ィ":1936,"イ":1937,"ゥ":1938,"ウ":1939,"ェ":1940,"エ":1941,"ォ":1942,"オ":1943,"カ":1944,"ガ":1945,"キ":1946,"ギ":1947,"ク":1948,"グ":1949,"ケ":1950,"ゲ":1951,"コ":1952,"ゴ":1953,"サ":1954,"ザ":1955,"シ":1956,"ジ":1957,"ス":1958,"ズ":1959,"セ":1960,"ゼ":1961,"ソ":1962,"ゾ":1963,"タ":1964,"ダ":1965,"チ":1966,"ヂ":1967,"ッ":1968,"ツ":1969,"ヅ":1970,"テ":1971,"デ":1972,"ト":1973,"ド":1974,"ナ":1975,"ニ":1976,"ヌ":1977,"ネ":1978,"ノ":1979,"ハ":1980,"バ":1981,"パ":1982,"ヒ":1983,"ビ":1984,"ピ":1985,"フ":1986,"ブ":1987,"プ":1988,"ヘ":1989,"ベ":1990,"ペ":1991,"ホ":1992,"ボ":1993,"ポ":1994,"マ":1995,"ミ":1996,"ム":1997,"メ":1998,"モ":1999,"ャ":2000,"ヤ":2001,"ュ":2002,"ユ":2003,"ョ":2004,"ヨ":2005,"ラ":2006,"リ":2007,"ル":2008,"レ":2009,"ロ":2010,"ヮ":2011,"ワ":2012,"ヰ":2013,"ヱ":2014,"ヲ":2015,"ン":2016,"ヴ":2017,"ヶ":2018,"・":2019,"ー":2020,"ㄅ":2021,"ㄇ":2022,"ㄈ":2023,"ㄍ":2024,"ㄏ":2025,"ㄓ":2026,"ㄚ":2027,"ㄛ":2028,"ㄢ":2029,"ㄣ":2030,"ㄥ":2031,"ㄧ":2032,"ㄨ":2033,"ㄩ":2034,"㄰":2035,"㑽":2036,"㒤":2037,"㕙":2038,"㖨":2039,"㖿":2040,"㗡":2041,"㘾":2042,"㙉":2043,"㙐":2044,"㙫":2045,"㝡":2046,"㞳":2047,"㟓":2048,"㠎":2049,"㠱":2050,"㡯":2051,"㥄":2052,"㥔":2053,"㥠":2054,"㥧":2055,"㥽":2056,"㦳":2057,"㩼":2058,"㫜":2059,"㫻":2060,"㮒":2061,"㳣":2062,"㴒":2063,"㴭":2064,"㵓":2065,"㵮":2066,"㶱":2067,"㷏":2068,"㷩":2069,"㺩":2070,"㺪":2071,"㺹":2072,"㻋":2073,"㻩":2074,"㽥":2075,"䃏":2076,"䃤":2077,"䄷":2078,"䌙":2079,"䎘":2080,"䎙":2081,"䎱":2082,"䑸":2083,"䔉":2084,"䘙":2085,"䟆":2086,"䟽":2087,"䤴":2088,"䧹":2089,"䫨":2090,"䭏":2091,"䭔":2092,"䵣":2093,"一":2094,"丁":2095,"七":2096,"万":2097,"丈":2098,"三":2099,"上":2100,"下":2101,"不":2102,"与":2103,"丐":2104,"丑":2105,"专":2106,"且":2107,"丕":2108,"世":2109,"丘":2110,"丙":2111,"业":2112,"东":2113,"丝":2114,"丞":2115,"両":2116,"两":2117,"严":2118,"並":2119,"丧":2120,"丨":2121,"个":2122,"丫":2123,"中":2124,"丰":2125,"串":2126,"临":2127,"丸":2128,"丹":2129,"为":2130,"主":2131,"丼":2132,"丽":2133,"举":2134,"乂":2135,"乃":2136,"久":2137,"乇":2138,"么":2139,"义":2140,"之":2141,"乌":2142,"乍":2143,"乎":2144,"乏":2145,"乐":2146,"乔":2147,"乖":2148,"乗":2149,"乘":2150,"乙":2151,"九":2152,"乞":2153,"也":2154,"习":2155,"乡":2156,"书":2157,"乫":2158,"乭":2159,"乱":2160,"乳":2161,"乶":2162,"乷":2163,"乸":2164,"乽":2165,"乾":2166,"亀":2167,"亂":2168,"亅":2169,"了":2170,"予":2171,"争":2172,"事":2173,"二":2174,"于":2175,"亐":2176,"云":2177,"互":2178,"五":2179,"井":2180,"亘":2181,"亚":2182,"些":2183,"亜":2184,"亞":2185,"亟":2186,"亡":2187,"亢":2188,"交":2189,"亥":2190,"亦":2191,"产":2192,"亨":2193,"享":2194,"京":2195,"亭":2196,"亮":2197,"亲":2198,"亳":2199,"亶":2200,"亹":2201,"人":2202,"亿":2203,"什":2204,"仁":2205,"仄":2206,"仅":2207,"仇":2208,"今":2209,"介":2210,"仍":2211,"从":2212,"仏":2213,"仓":2214,"仔":2215,"仕":2216,"他":2217,"仗":2218,"付":2219,"仙":2220,"仝":2221,"仞":2222,"仟":2223,"仡":2224,"代":2225,"令":2226,"以":2227,"仪":2228,"们":2229,"仮":2230,"仰":2231,"仲":2232,"件":2233,"价":2234,"任":2235,"份":2236,"企":2237,"伉":2238,"伊":2239,"伋":2240,"伍":2241,"伎":2242,"伏":2243,"伐":2244,"休":2245,"众":2246,"优":2247,"伙":2248,"会":2249,"伝":2250,"伞":2251,"伟":2252,"传":2253,"伦":2254,"伯":2255,"伴":2256,"伶":2257,"伷":2258,"伸":2259,"伺":2260,"似":2261,"伽":2262,"伾":2263,"佃":2264,"但":2265,"佇":2266,"佈":2267,"佉":2268,"位":2269,"低":2270,"住":2271,"佐":2272,"佑":2273,"体":2274,"佔":2275,"何":2276,"佖":2277,"佗":2278,"余":2279,"佚":2280,"佛":2281,"作":2282,"佝":2283,"佞":2284,"佟":2285,"你":2286,"佩":2287,"佯":2288,"佰":2289,"佲":2290,"佳":2291,"併":2292,"佶":2293,"佷":2294,"佺":2295,"佼":2296,"佾":2297,"使":2298,"侁":2299,"侃":2300,"侅":2301,"來":2302,"侈":2303,"侊":2304,"例":2305,"侍":2306,"侏":2307,"侑":2308,"侖":2309,"侗":2310,"侘":2311,"侙":2312,"供":2313,"依":2314,"価":2315,"侮":2316,"侯":2317,"侵":2318,"侶":2319,"侹":2320,"便":2321,"俀":2322,"係":2323,"促":2324,"俄":2325,"俅":2326,"俉":2327,"俊":2328,"俌":2329,"俎":2330,"俐":2331,"俑":2332,"俓":2333,"俔":2334,"俗":2335,"俘":2336,"俙":2337,"俚":2338,"保":2339,"俞":2340,"俟":2341,"俠":2342,"信":2343,"俣":2344,"修":2345,"俯":2346,"俱":2347,"俳":2348,"俵":2349,"俶":2350,"俸":2351,"俺":2352,"倂":2353,"倆":2354,"倉":2355,"個":2356,"倍":2357,"倎":2358,"們":2359,"倒":2360,"倓":2361,"倔":2362,"倖":2363,"候":2364,"倚":2365,"倜":2366,"倞":2367,"借":2368,"倡":2369,"倣":2370,"値":2371,"倦":2372,"倧":2373,"倨":2374,"倩":2375,"倪":2376,"倫":2377,"倬":2378,"倭":2379,"倮":2380,"倶":2381,"倻":2382,"值":2383,"倾":2384,"偁":2385,"偃":2386,"假":2387,"偈":2388,"偉":2389,"偏":2390,"偕":2391,"偗":2392,"做":2393,"停":2394,"健":2395,"偪":2396,"偰":2397,"偲":2398,"側":2399,"偵":2400,"偶":2401,"偷":2402,"偸":2403,"偽":2404,"偿":2405,"傀":2406,"傅":2407,"傈":2408,"傍":2409,"傑":2410,"傒":2411,"傔":2412,"傕":2413,"傘":2414,"備":2415,"傛":2416,"傪":2417,"催":2418,"傭":2419,"傲":2420,"傳":2421,"債":2422,"傷":2423,"傻":2424,"傾":2425,"僂":2426,"僅":2427,"僉":2428,"僊":2429,"働":2430,"像":2431,"僑":2432,"僕":2433,"僖":2434,"僚":2435,"僞":2436,"僥":2437,"僧":2438,"僭":2439,"僮":2440,"僳":2441,"僴":2442,"價":2443,"僻":2444,"僿":2445,"儀":2446,"儁":2447,"儂":2448,"億":2449,"儆":2450,"儉":2451,"儋":2452,"儐":2453,"儒":2454,"儘":2455,"儛":2456,"償":2457,"儡":2458,"儧":2459,"優":2460,"儲":2461,"儷":2462,"儺":2463,"儻":2464,"儼":2465,"儿":2466,"兀":2467,"允":2468,"元":2469,"兄":2470,"充":2471,"兆":2472,"兇":2473,"先":2474,"光":2475,"克":2476,"兌":2477,"免":2478,"兎":2479,"児":2480,"兒":2481,"兔":2482,"兕":2483,"兗":2484,"党":2485,"兜":2486,"兢":2487,"入":2488,"內":2489,"全":2490,"兩":2491,"兪":2492,"八":2493,"公":2494,"六":2495,"兮":2496,"兰":2497,"共":2498,"关":2499,"兴":2500,"兵":2501,"其":2502,"具":2503,"典":2504,"养":2505,"兼":2506,"兽":2507,"冀":2508,"内":2509,"円":2510,"冈":2511,"冉":2512,"冊":2513,"册":2514,"再":2515,"冏":2516,"冑":2517,"冒":2518,"冕":2519,"冗":2520,"写":2521,"军":2522,"农":2523,"冠":2524,"冢":2525,"冤":2526,"冥":2527,"冨":2528,"冪":2529,"冬":2530,"冰":2531,"冲":2532,"决":2533,"冴":2534,"况":2535,"冶":2536,"冷":2537,"冻":2538,"冼":2539,"冽":2540,"冾":2541,"净":2542,"凄":2543,"准":2544,"凉":2545,"凋":2546,"凌":2547,"凍":2548,"减":2549,"凜":2550,"凝":2551,"凞":2552,"几":2553,"凡":2554,"凤":2555,"処":2556,"凯":2557,"凰":2558,"凱":2559,"凶":2560,"凸":2561,"凹":2562,"出":2563,"击":2564,"函":2565,"刀":2566,"刃":2567,"分":2568,"切":2569,"刈":2570,"刊":2571,"刎":2572,"刑":2573,"划":2574,"刖":2575,"列":2576,"刘":2577,"则":2578,"刚":2579,"创":2580,"初":2581,"判":2582,"別":2583,"利":2584,"刪":2585,"别":2586,"刮":2587,"到":2588,"刱":2589,"制":2590,"刷":2591,"券":2592,"刹":2593,"刺":2594,"刻":2595,"剃":2596,"則":2597,"剉":2598,"削":2599,"剋":2600,"剌":2601,"前":2602,"剎":2603,"剑":2604,"剔":2605,"剖":2606,"剛":2607,"剝":2608,"剣":2609,"剥":2610,"剩":2611,"剪":2612,"副":2613,"割":2614,"創":2615,"剽":2616,"剿":2617,"劃":2618,"劇":2619,"劈":2620,"劉":2621,"劍":2622,"劑":2623,"劒":2624,"力":2625,"功":2626,"加":2627,"务":2628,"劣":2629,"劤":2630,"劦":2631,"动":2632,"助":2633,"努":2634,"劫":2635,"劬":2636,"劭":2637,"励":2638,"劳":2639,"労":2640,"効":2641,"劻":2642,"劾":2643,"势":2644,"勀":2645,"勁":2646,"勃":2647,"勅":2648,"勇":2649,"勉":2650,"勍":2651,"勒":2652,"動":2653,"勖":2654,"勗":2655,"勘":2656,"務":2657,"勛":2658,"勝":2659,"勞":2660,"募":2661,"勢":2662,"勣":2663,"勤":2664,"勧":2665,"勰":2666,"勲":2667,"勳":2668,"勵":2669,"勸":2670,"勺":2671,"勾":2672,"勿":2673,"匂":2674,"匄":2675,"包":2676,"匈":2677,"匋":2678,"匍":2679,"匏":2680,"匕":2681,"化":2682,"北":2683,"匙":2684,"匠":2685,"匡":2686,"匣":2687,"匪":2688,"匮":2689,"匯":2690,"匱":2691,"匹":2692,"区":2693,"医":2694,"匽":2695,"匿":2696,"區":2697,"十":2698,"千":2699,"卄":2700,"卅":2701,"升":2702,"午":2703,"卉":2704,"半":2705,"卍":2706,"华":2707,"协":2708,"卑":2709,"卒":2710,"卓":2711,"協":2712,"单":2713,"南":2714,"単":2715,"博":2716,"卜":2717,"卞":2718,"占":2719,"卡":2720,"卢":2721,"卤":2722,"卦":2723,"卨":2724,"卫":2725,"卬":2726,"卯":2727,"印":2728,"危":2729,"卲":2730,"即":2731,"却":2732,"卵":2733,"卷":2734,"卹":2735,"卽":2736,"卿":2737,"厂":2738,"厄":2739,"历":2740,"厓":2741,"厖":2742,"厘":2743,"厚":2744,"厝":2745,"原":2746,"厠":2747,"厢":2748,"厥":2749,"厦":2750,"厨":2751,"厩":2752,"厭":2753,"厲":2754,"厳":2755,"去":2756,"县":2757,"参":2758,"參":2759,"叅":2760,"又":2761,"叉":2762,"及":2763,"友":2764,"双":2765,"反":2766,"収":2767,"发":2768,"叔":2769,"取":2770,"受":2771,"变":2772,"叙":2773,"叛":2774,"叟":2775,"叠":2776,"叡":2777,"叢":2778,"口":2779,"古":2780,"句":2781,"另":2782,"叩":2783,"只":2784,"叫":2785,"召":2786,"叭":2787,"可":2788,"台":2789,"叱":2790,"史":2791,"右":2792,"叶":2793,"号":2794,"司":2795,"叺":2796,"吁":2797,"吃":2798,"各":2799,"合":2800,"吉":2801,"吊":2802,"同":2803,"名":2804,"后":2805,"吏":2806,"吐":2807,"向":2808,"吒":2809,"吕":2810,"君":2811,"吝":2812,"吞":2813,"吟":2814,"吠":2815,"否":2816,"吧":2817,"吩":2818,"含":2819,"听":2820,"吳":2821,"吴":2822,"吶":2823,"吸":2824,"吹":2825,"吻":2826,"吼":2827,"吽":2828,"吾":2829,"呀":2830,"呂":2831,"呆":2832,"呈":2833,"呉":2834,"告":2835,"呑":2836,"员":2837,"呟":2838,"呢":2839,"周":2840,"呪":2841,"呱":2842,"味":2843,"呵":2844,"呻":2845,"呼":2846,"命":2847,"咀":2848,"咄":2849,"咆":2850,"和":2851,"咎":2852,"咏":2853,"咐":2854,"咒":2855,"咖":2856,"咢":2857,"咤":2858,"咥":2859,"咨":2860,"咫":2861,"咬":2862,"咯":2863,"咲":2864,"咳":2865,"咸":2866,"咺":2867,"咽":2868,"哀":2869,"品":2870,"哄":2871,"哆":2872,"哈":2873,"哉":2874,"哖":2875,"員":2876,"哥":2877,"哨":2878,"哩":2879,"哪":2880,"哭":2881,"哮":2882,"哲":2883,"哺":2884,"唄":2885,"唆":2886,"唇":2887,"唊":2888,"唎":2889,"唐":2890,"唜":2891,"售":2892,"唯":2893,"唱":2894,"唳":2895,"唵":2896,"唾":2897,"啄":2898,"商":2899,"啊":2900,"問":2901,"啓":2902,"啖":2903,"啚":2904,"啞":2905,"啟":2906,"啡":2907,"啣":2908,"啼":2909,"喀":2910,"善":2911,"喆":2912,"喇":2913,"喉":2914,"喊":2915,"喎":2916,"喘":2917,"喙":2918,"喚":2919,"喜":2920,"喝":2921,"喟":2922,"喦":2923,"喧":2924,"喩":2925,"喪":2926,"喫":2927,"喬":2928,"單":2929,"喰":2930,"営":2931,"喷":2932,"喻":2933,"喾":2934,"嗄":2935,"嗅":2936,"嗇":2937,"嗑":2938,"嗒":2939,"嗔":2940,"嗚":2941,"嗜":2942,"嗟":2943,"嗢":2944,"嗣":2945,"嗤":2946,"嗶":2947,"嗽":2948,"嗾":2949,"嘆":2950,"嘉":2951,"嘎":2952,"嘏":2953,"嘐":2954,"嘓":2955,"嘗":2956,"嘛":2957,"嘬":2958,"嘯":2959,"嘲":2960,"嘴":2961,"嘶":2962,"嘸":2963,"噉":2964,"噌":2965,"噍":2966,"噓":2967,"器":2968,"噫":2969,"噬":2970,"噲":2971,"噴":2972,"噶":2973,"嚆":2974,"嚚":2975,"嚢":2976,"嚣":2977,"嚥":2978,"嚩":2979,"嚭":2980,"嚮":2981,"嚳":2982,"嚴":2983,"嚼":2984,"囂":2985,"囉":2986,"囊":2987,"囍":2988,"囏":2989,"囑":2990,"囗":2991,"囚":2992,"四":2993,"回":2994,"因":2995,"团":2996,"団":2997,"囧":2998,"园":2999,"囯":3000,"困":3001,"囲":3002,"図":3003,"围":3004,"囹":3005,"固":3006,"国":3007,"图":3008,"囿":3009,"圂":3010,"圃":3011,"圄":3012,"圆":3013,"圈":3014,"圉":3015,"國":3016,"圍":3017,"圏":3018,"園":3019,"圓":3020,"圖":3021,"團":3022,"圜":3023,"土":3024,"圧":3025,"在":3026,"圭":3027,"圮":3028,"地":3029,"圳":3030,"场":3031,"圻":3032,"址":3033,"坂":3034,"均":3035,"坊":3036,"坍":3037,"坎":3038,"坐":3039,"坑":3040,"块":3041,"坛":3042,"坝":3043,"坟":3044,"坡":3045,"坤":3046,"坦":3047,"坧":3048,"坨":3049,"坪":3050,"坮":3051,"坰":3052,"坳":3053,"坵":3054,"坼":3055,"垂":3056,"垄":3057,"垈":3058,"型":3059,"垍":3060,"垓":3061,"垕":3062,"垛":3063,"垜":3064,"垝":3065,"垠":3066,"垢":3067,"垣":3068,"垸":3069,"垾":3070,"埁":3071,"埃":3072,"埅":3073,"埇":3074,"埈":3075,"埋":3076,"城":3077,"埏":3078,"埒":3079,"埔":3080,"埕":3081,"埗":3082,"埜":3083,"埞":3084,"域":3085,"埠":3086,"埤":3087,"埬":3088,"埮":3089,"埰":3090,"埴":3091,"埵":3092,"執":3093,"培":3094,"基":3095,"埼":3096,"堀":3097,"堂":3098,"堃":3099,"堅":3100,"堆":3101,"堇":3102,"堈":3103,"堉":3104,"堊":3105,"堕":3106,"堞":3107,"堡":3108,"堣":3109,"堤":3110,"堧":3111,"堪":3112,"堯":3113,"堰":3114,"報":3115,"場":3116,"堵":3117,"堺":3118,"塊":3119,"塋":3120,"塏":3121,"塑":3122,"塔":3123,"塗":3124,"塘":3125,"塙":3126,"塚":3127,"塞":3128,"塡":3129,"塢":3130,"塤":3131,"塩":3132,"填":3133,"塱":3134,"塲":3135,"塵":3136,"塹":3137,"塼":3138,"塽":3139,"塾":3140,"墀":3141,"境":3142,"墅":3143,"墉":3144,"墍":3145,"墓":3146,"増":3147,"墘":3148,"墜":3149,"增":3150,"墟":3151,"墡":3152,"墨":3153,"墩":3154,"墭":3155,"墮":3156,"墰":3157,"墳":3158,"墺":3159,"墻":3160,"墾":3161,"壁":3162,"壄":3163,"壅":3164,"壇":3165,"壊":3166,"壎":3167,"壑":3168,"壓":3169,"壔":3170,"壕":3171,"壘":3172,"壙":3173,"壜":3174,"壞":3175,"壟":3176,"壠":3177,"壢":3178,"壤":3179,"壩":3180,"士":3181,"壬":3182,"壮":3183,"壯":3184,"声":3185,"壱":3186,"売":3187,"壷":3188,"壹":3189,"壺":3190,"壻":3191,"壽":3192,"壾":3193,"处":3194,"夆":3195,"备":3196,"変":3197,"复":3198,"夏":3199,"夐":3200,"夔":3201,"夕":3202,"外":3203,"夘":3204,"夙":3205,"多":3206,"夜":3207,"夢":3208,"大":3209,"天":3210,"太":3211,"夫":3212,"夭":3213,"央":3214,"失":3215,"头":3216,"夷":3217,"夸":3218,"夹":3219,"夾":3220,"奄":3221,"奇":3222,"奈":3223,"奉":3224,"奋":3225,"奎":3226,"奏":3227,"奐":3228,"契":3229,"奔":3230,"奕":3231,"奖":3232,"套":3233,"奘":3234,"奚":3235,"奠":3236,"奢":3237,"奥":3238,"奧":3239,"奨":3240,"奪":3241,"奫":3242,"奬":3243,"奭":3244,"奮":3245,"女":3246,"奴":3247,"奶":3248,"奸":3249,"她":3250,"好":3251,"如":3252,"妃":3253,"妄":3254,"妆":3255,"妇":3256,"妊":3257,"妒":3258,"妓":3259,"妖":3260,"妙":3261,"妣":3262,"妤":3263,"妥":3264,"妨":3265,"妬":3266,"妮":3267,"妲":3268,"妵":3269,"妹":3270,"妻":3271,"妾":3272,"姁":3273,"姃":3274,"姆":3275,"姈":3276,"姉":3277,"姊":3278,"始":3279,"姍":3280,"姐":3281,"姑":3282,"姒":3283,"姓":3284,"委":3285,"姙":3286,"姚":3287,"姜":3288,"姝":3289,"姞":3290,"姥":3291,"姦":3292,"姨":3293,"姪":3294,"姫":3295,"姬":3296,"姮":3297,"姸":3298,"姻":3299,"姿":3300,"娀":3301,"威":3302,"娃":3303,"娎":3304,"娑":3305,"娘":3306,"娙":3307,"娛":3308,"娜":3309,"娟":3310,"娠":3311,"娣":3312,"娥":3313,"娩":3314,"娯":3315,"娱":3316,"娵":3317,"娶":3318,"娼":3319,"婁":3320,"婆":3321,"婉":3322,"婕":3323,"婚":3324,"婢":3325,"婦":3326,"婧":3327,"婬":3328,"婷":3329,"婺":3330,"婿":3331,"媒":3332,"媚":3333,"媛":3334,"媤":3335,"媧":3336,"媯":3337,"媵":3338,"媼":3339,"媽":3340,"嫁":3341,"嫂":3342,"嫄":3343,"嫉":3344,"嫌":3345,"嫖":3346,"嫘":3347,"嫡":3348,"嫦":3349,"嫩":3350,"嫺":3351,"嫻":3352,"嬀":3353,"嬅":3354,"嬈":3355,"嬉":3356,"嬌":3357,"嬖":3358,"嬙":3359,"嬛":3360,"嬢":3361,"嬪":3362,"嬰":3363,"嬴":3364,"嬿":3365,"孀":3366,"孁":3367,"孃":3368,"孊":3369,"子":3370,"孔":3371,"孕":3372,"孖":3373,"字":3374,"存":3375,"孙":3376,"孚":3377,"孛":3378,"孜":3379,"孝":3380,"孟":3381,"季":3382,"孤":3383,"学":3384,"孩":3385,"孫":3386,"孰":3387,"孱":3388,"孵":3389,"學":3390,"孺":3391,"孼":3392,"孽":3393,"宀":3394,"宁":3395,"它":3396,"宅":3397,"宇":3398,"守":3399,"安":3400,"宋":3401,"完":3402,"宍":3403,"宏":3404,"宓":3405,"宕":3406,"宖":3407,"宗":3408,"官":3409,"宙":3410,"定":3411,"宛":3412,"宜":3413,"宝":3414,"实":3415,"実":3416,"宠":3417,"客":3418,"宣":3419,"室":3420,"宥":3421,"宦":3422,"宫":3423,"宬":3424,"宮":3425,"宰":3426,"害":3427,"宴":3428,"宵":3429,"家":3430,"宸":3431,"容":3432,"宺":3433,"宽":3434,"宿":3435,"寀":3436,"寂":3437,"寃":3438,"寄":3439,"寅":3440,"密":3441,"寇":3442,"富":3443,"寏":3444,"寐":3445,"寒":3446,"寓":3447,"寔":3448,"寗":3449,"寛":3450,"寜":3451,"寝":3452,"寞":3453,"察":3454,"寡":3455,"寢":3456,"寤":3457,"寥":3458,"實":3459,"寧":3460,"寨":3461,"審":3462,"寫":3463,"寬":3464,"寮":3465,"寯":3466,"寰":3467,"寵":3468,"寶":3469,"寸":3470,"对":3471,"寺":3472,"寻":3473,"导":3474,"対":3475,"寿":3476,"封":3477,"専":3478,"射":3479,"将":3480,"將":3481,"專":3482,"尉":3483,"尊":3484,"尋":3485,"對":3486,"導":3487,"小":3488,"少":3489,"尒":3490,"尔":3491,"尖":3492,"尙":3493,"尚":3494,"尤":3495,"尧":3496,"尨":3497,"尭":3498,"就":3499,"尸":3500,"尹":3501,"尺":3502,"尻":3503,"尼":3504,"尽":3505,"尾":3506,"尿":3507,"局":3508,"屁":3509,"居":3510,"屆":3511,"屈":3512,"届":3513,"屋":3514,"屍":3515,"屎":3516,"屏":3517,"屐":3518,"屑":3519,"展":3520,"屛":3521,"属":3522,"屠":3523,"屢":3524,"層":3525,"履":3526,"屬":3527,"屯":3528,"山":3529,"屹":3530,"屽":3531,"岁":3532,"岊":3533,"岌":3534,"岐":3535,"岑":3536,"岗":3537,"岛":3538,"岠":3539,"岡":3540,"岩":3541,"岫":3542,"岬":3543,"岭":3544,"岱":3545,"岳":3546,"岵":3547,"岷":3548,"岸":3549,"岹":3550,"岺":3551,"岾":3552,"峋":3553,"峑":3554,"峒":3555,"峘":3556,"峙":3557,"峠":3558,"峡":3559,"峨":3560,"峪":3561,"峭":3562,"峯":3563,"峰":3564,"峴":3565,"島":3566,"峻":3567,"峼":3568,"峽":3569,"崁":3570,"崃":3571,"崇":3572,"崍":3573,"崎":3574,"崐":3575,"崑":3576,"崒":3577,"崔":3578,"崖":3579,"崗":3580,"崙":3581,"崛":3582,"崝":3583,"崧":3584,"崩":3585,"崴":3586,"崿":3587,"嵂":3588,"嵇":3589,"嵋":3590,"嵌":3591,"嵎":3592,"嵐":3593,"嵒":3594,"嵓":3595,"嵙":3596,"嵩":3597,"嵬":3598,"嵯":3599,"嶂":3600,"嶇":3601,"嶋":3602,"嶌":3603,"嶝":3604,"嶠":3605,"嶧":3606,"嶪":3607,"嶫":3608,"嶲":3609,"嶷":3610,"嶸":3611,"嶺":3612,"嶻":3613,"嶼":3614,"嶽":3615,"巂":3616,"巄":3617,"巋":3618,"巌":3619,"巍":3620,"巒":3621,"巔":3622,"巖":3623,"巘":3624,"巚":3625,"川":3626,"州":3627,"巡":3628,"巢":3629,"巣":3630,"工":3631,"左":3632,"巧":3633,"巨":3634,"巩":3635,"巫":3636,"差":3637,"己":3638,"已":3639,"巳":3640,"巴":3641,"巷":3642,"巻":3643,"巽":3644,"巾":3645,"巿":3646,"币":3647,"市":3648,"布":3649,"帅":3650,"帆":3651,"师":3652,"希":3653,"帑":3654,"帔":3655,"帖":3656,"帙":3657,"帛":3658,"帝":3659,"帥":3660,"師":3661,"席":3662,"帮":3663,"帯":3664,"帰":3665,"帳":3666,"帶":3667,"常":3668,"帽":3669,"帿":3670,"幀":3671,"幄":3672,"幅":3673,"幇":3674,"幌":3675,"幕":3676,"幘":3677,"幞":3678,"幟":3679,"幡":3680,"幢":3681,"幣":3682,"干":3683,"平":3684,"年":3685,"并":3686,"幷":3687,"幸":3688,"幹":3689,"幻":3690,"幼":3691,"幽":3692,"幾":3693,"广":3694,"庁":3695,"広":3696,"庄":3697,"庆":3698,"庇":3699,"床":3700,"序":3701,"库":3702,"应":3703,"底":3704,"店":3705,"庙":3706,"庚":3707,"府":3708,"庞":3709,"庠":3710,"庥":3711,"度":3712,"座":3713,"庫":3714,"庭":3715,"庲":3716,"庳":3717,"庵":3718,"庶":3719,"康":3720,"庸":3721,"庹":3722,"庾":3723,"廂":3724,"廃":3725,"廆":3726,"廈":3727,"廉":3728,"廊":3729,"廌":3730,"廏":3731,"廐":3732,"廑":3733,"廓":3734,"廖":3735,"廙":3736,"廚":3737,"廛":3738,"廟":3739,"廠":3740,"廡":3741,"廢":3742,"廣":3743,"廨":3744,"廩":3745,"廪":3746,"廬":3747,"廳":3748,"延":3749,"廷":3750,"建":3751,"廻":3752,"廿":3753,"开":3754,"弁":3755,"异":3756,"弃":3757,"弄":3758,"弊":3759,"弋":3760,"式":3761,"弐":3762,"弑":3763,"弓":3764,"弔":3765,"引":3766,"弖":3767,"弗":3768,"弘":3769,"弛":3770,"弟":3771,"张":3772,"弥":3773,"弦":3774,"弧":3775,"弩":3776,"弱":3777,"張":3778,"強":3779,"弹":3780,"强":3781,"弼":3782,"弾":3783,"彅":3784,"彆":3785,"彈":3786,"彊":3787,"彌":3788,"彎":3789,"归":3790,"当":3791,"彔":3792,"彖":3793,"彗":3794,"彘":3795,"彙":3796,"彛":3797,"彝":3798,"彡":3799,"形":3800,"彤":3801,"彥":3802,"彦":3803,"彧":3804,"彩":3805,"彪":3806,"彫":3807,"彬":3808,"彭":3809,"彰":3810,"影":3811,"彷":3812,"役":3813,"彼":3814,"彿":3815,"往":3816,"征":3817,"徂":3818,"待":3819,"徇":3820,"徊":3821,"律":3822,"後":3823,"徐":3824,"徑":3825,"徒":3826,"従":3827,"得":3828,"徘":3829,"徙":3830,"從":3831,"徠":3832,"御":3833,"徨":3834,"復":3835,"循":3836,"徭":3837,"微":3838,"徯":3839,"徳":3840,"徵":3841,"德":3842,"徹":3843,"徽":3844,"心":3845,"忄":3846,"必":3847,"忉":3848,"忌":3849,"忍":3850,"忒":3851,"忖":3852,"志":3853,"忘":3854,"忙":3855,"応":3856,"忝":3857,"忠":3858,"忧":3859,"快":3860,"忱":3861,"念":3862,"忻":3863,"忽":3864,"忿":3865,"怀":3866,"态":3867,"怎":3868,"怏":3869,"怒":3870,"怖":3871,"怙":3872,"怛":3873,"怜":3874,"思":3875,"怠":3876,"怡":3877,"怤":3878,"急":3879,"性":3880,"怨":3881,"怪":3882,"怯":3883,"怵":3884,"总":3885,"恁":3886,"恂":3887,"恃":3888,"恆":3889,"恊":3890,"恋":3891,"恍":3892,"恐":3893,"恒":3894,"恕":3895,"恙":3896,"恚":3897,"恝":3898,"恢":3899,"恣":3900,"恤":3901,"恥":3902,"恨":3903,"恩":3904,"恪":3905,"恬":3906,"恭":3907,"恮":3908,"息":3909,"恰":3910,"恵":3911,"恺":3912,"悅":3913,"悉":3914,"悌":3915,"悍":3916,"悔":3917,"悖":3918,"悚":3919,"悛":3920,"悝":3921,"悟":3922,"悠":3923,"患":3924,"悤":3925,"悦":3926,"悧":3927,"悪":3928,"悬":3929,"悰":3930,"悲":3931,"悳":3932,"悴":3933,"悶":3934,"悸":3935,"悺":3936,"悼":3937,"悽":3938,"惀":3939,"情":3940,"惇":3941,"惑":3942,"惔":3943,"惕":3944,"惚":3945,"惛":3946,"惜":3947,"惟":3948,"惠":3949,"惡":3950,"惣":3951,"惦":3952,"惰":3953,"惱":3954,"惲":3955,"想":3956,"惴":3957,"惶":3958,"惹":3959,"惺":3960,"惻":3961,"愁":3962,"愃":3963,"愆":3964,"愈":3965,"愉":3966,"愍":3967,"愎":3968,"意":3969,"愓":3970,"愔":3971,"愕":3972,"愖":3973,"愚":3974,"愛":3975,"感":3976,"愧":3977,"愨":3978,"愬":3979,"愰":3980,"愴":3981,"愷":3982,"愹":3983,"愼":3984,"愽":3985,"愾":3986,"愿":3987,"慂":3988,"慄":3989,"慇":3990,"慈":3991,"慊":3992,"態":3993,"慌":3994,"慎":3995,"慕":3996,"慘":3997,"慙":3998,"慚":3999,"慜":4000,"慝":4001,"慟":4002,"慠":4003,"慢":4004,"慣":4005,"慤":4006,"慧":4007,"慨":4008,"慫":4009,"慮":4010,"慰":4011,"慳":4012,"慵":4013,"慶":4014,"慷":4015,"慹":4016,"慼":4017,"慽":4018,"慾":4019,"憁":4020,"憂":4021,"憊":4022,"憍":4023,"憎":4024,"憐":4025,"憑":4026,"憔":4027,"憘":4028,"憙":4029,"憚":4030,"憤":4031,"憧":4032,"憩":4033,"憫":4034,"憬":4035,"憮":4036,"憲":4037,"憶":4038,"憺":4039,"憾":4040,"懂":4041,"懃":4042,"懇":4043,"懈":4044,"應":4045,"懋":4046,"懌":4047,"懐":4048,"懦":4049,"懲":4050,"懶":4051,"懷":4052,"懸":4053,"懹":4054,"懺":4055,"懼":4056,"懽":4057,"懿":4058,"戀":4059,"戈":4060,"戊":4061,"戌":4062,"戍":4063,"戎":4064,"成":4065,"我":4066,"戒":4067,"戔":4068,"或":4069,"战":4070,"戚":4071,"戟":4072,"戡":4073,"戢":4074,"戦":4075,"戩":4076,"截":4077,"戭":4078,"戮":4079,"戯":4080,"戰":4081,"戱":4082,"戲":4083,"戴":4084,"戶":4085,"户":4086,"戸":4087,"戺":4088,"戻":4089,"戾":4090,"房":4091,"所":4092,"扁":4093,"扃":4094,"扇":4095,"扈":4096,"扉":4097,"手":4098,"才":4099,"扎":4100,"扐":4101,"扒":4102,"打":4103,"払":4104,"托":4105,"扞":4106,"扣":4107,"扬":4108,"扭":4109,"扮":4110,"扯":4111,"扰":4112,"扱":4113,"扶":4114,"批":4115,"扼":4116,"找":4117,"承":4118,"技":4119,"抃":4120,"抄":4121,"抉":4122,"把":4123,"抑":4124,"抒":4125,"抔":4126,"投":4127,"抗":4128,"折":4129,"抚":4130,"抛":4131,"抜":4132,"护":4133,"报":4134,"披":4135,"抱":4136,"抳":4137,"抵":4138,"抹":4139,"押":4140,"抽":4141,"拂":4142,"担":4143,"拇":4144,"拈":4145,"拉":4146,"拌":4147,"拍":4148,"拏":4149,"拐":4150,"拒":4151,"拓":4152,"拔":4153,"拕":4154,"拖":4155,"拘":4156,"拙":4157,"招":4158,"拜":4159,"拠":4160,"拨":4161,"括":4162,"拭":4163,"拮":4164,"拯":4165,"拱":4166,"拳":4167,"拶":4168,"拷":4169,"拼":4170,"拾":4171,"拿":4172,"持":4173,"挂":4174,"指":4175,"按":4176,"挑":4177,"挖":4178,"挙":4179,"挚":4180,"挟":4181,"挥":4182,"挨":4183,"挫":4184,"振":4185,"挹":4186,"挺":4187,"挻":4188,"挽":4189,"挾":4190,"捉":4191,"捌":4192,"捐":4193,"捕":4194,"捗":4195,"捜":4196,"损":4197,"换":4198,"捧":4199,"捨":4200,"捩":4201,"据":4202,"捲":4203,"捷":4204,"捺":4205,"捻":4206,"捿":4207,"掃":4208,"授":4209,"掉":4210,"掌":4211,"掏":4212,"排":4213,"掖":4214,"掘":4215,"掛":4216,"掠":4217,"採":4218,"探":4219,"接":4220,"控":4221,"推":4222,"掩":4223,"措":4224,"掲":4225,"掾":4226,"揀":4227,"揄":4228,"揅":4229,"揆":4230,"描":4231,"提":4232,"插":4233,"揔":4234,"揖":4235,"揚":4236,"換":4237,"握":4238,"揭":4239,"揮":4240,"援":4241,"揶":4242,"揷":4243,"搄":4244,"搆":4245,"搋":4246,"損":4247,"搏":4248,"搔":4249,"搖":4250,"搗":4251,"搜":4252,"搢":4253,"搬":4254,"搭":4255,"携":4256,"搾":4257,"摂":4258,"摄":4259,"摎":4260,"摘":4261,"摛":4262,"摠":4263,"摩":4264,"摯":4265,"摰":4266,"摶":4267,"摸":4268,"摹":4269,"摺":4270,"撃":4271,"撈":4272,"撐":4273,"撑":4274,"撒":4275,"撓":4276,"撚":4277,"撝":4278,"撞":4279,"撤":4280,"撥":4281,"撩":4282,"撫":4283,"播":4284,"撮":4285,"撰":4286,"撲":4287,"撸":4288,"撻":4289,"撼":4290,"擁":4291,"擂":4292,"擄":4293,"擅":4294,"擇":4295,"擊":4296,"操":4297,"擎":4298,"擒":4299,"擔":4300,"擘":4301,"據":4302,"擡":4303,"擢":4304,"擥":4305,"擦":4306,"擧":4307,"擬":4308,"擲":4309,"擴":4310,"擺":4311,"擾":4312,"攀":4313,"攄":4314,"攘":4315,"攜":4316,"攝":4317,"攢":4318,"攣":4319,"攪":4320,"攫":4321,"攬":4322,"支":4323,"攴":4324,"攵":4325,"收":4326,"攷":4327,"攸":4328,"改":4329,"攻":4330,"放":4331,"政":4332,"故":4333,"效":4334,"敍":4335,"敎":4336,"敏":4337,"救":4338,"敕":4339,"敖":4340,"敗":4341,"敘":4342,"教":4343,"敞":4344,"敢":4345,"散":4346,"敦":4347,"敬":4348,"敭":4349,"数":4350,"敲":4351,"整":4352,"敵":4353,"敷":4354,"數":4355,"敾":4356,"斁":4357,"斂":4358,"斃":4359,"斄":4360,"文":4361,"斉":4362,"斋":4363,"斌":4364,"斎":4365,"斐":4366,"斑":4367,"斗":4368,"料":4369,"斛":4370,"斜":4371,"斟":4372,"斡":4373,"斤":4374,"斥":4375,"斧":4376,"斫":4377,"斬":4378,"断":4379,"斯":4380,"新":4381,"斷":4382,"方":4383,"於":4384,"施":4385,"旀":4386,"旁":4387,"旃":4388,"旄":4389,"旅":4390,"旉":4391,"旋":4392,"旌":4393,"族":4394,"旒":4395,"旗":4396,"无":4397,"既":4398,"旣":4399,"日":4400,"旦":4401,"旧":4402,"旨":4403,"早":4404,"旬":4405,"旭":4406,"旱":4407,"旴":4408,"旵":4409,"时":4410,"旺":4411,"旻":4412,"旼":4413,"旽":4414,"旿":4415,"昀":4416,"昂":4417,"昆":4418,"昇":4419,"昉":4420,"昊":4421,"昌":4422,"昍":4423,"明":4424,"昏":4425,"昐":4426,"昑":4427,"易":4428,"昔":4429,"昕":4430,"昖":4431,"昞":4432,"星":4433,"映":4434,"春":4435,"昧":4436,"昨":4437,"昪":4438,"昫":4439,"昭":4440,"是":4441,"昰":4442,"昱":4443,"昴":4444,"昶":4445,"昷":4446,"昺":4447,"昻":4448,"昼":4449,"显":4450,"晁":4451,"時":4452,"晃":4453,"晄":4454,"晉":4455,"晋":4456,"晏":4457,"晓":4458,"晗":4459,"晙":4460,"晚":4461,"晛":4462,"晝":4463,"晞":4464,"晟":4465,"晤":4466,"晥":4467,"晦":4468,"晧":4469,"晨":4470,"晩":4471,"晫":4472,"晬":4473,"普":4474,"景":4475,"晳":4476,"晴":4477,"晶":4478,"晷":4479,"晸":4480,"智":4481,"暁":4482,"暄":4483,"暅":4484,"暇":4485,"暈":4486,"暉":4487,"暎":4488,"暐":4489,"暑":4490,"暖":4491,"暗":4492,"暘":4493,"暝":4494,"暠":4495,"暢":4496,"暦":4497,"暨":4498,"暫":4499,"暮":4500,"暲":4501,"暳":4502,"暴":4503,"暹":4504,"暻":4505,"暾":4506,"曁":4507,"曄":4508,"曆":4509,"曇":4510,"曉":4511,"曔":4512,"曖":4513,"曘":4514,"曙":4515,"曜":4516,"曝":4517,"曠":4518,"曦":4519,"曮":4520,"曰":4521,"曲":4522,"曳":4523,"更":4524,"曷":4525,"書":4526,"曹":4527,"曺":4528,"曼":4529,"曽":4530,"曾":4531,"替":4532,"最":4533,"會":4534,"月":4535,"有":4536,"朋":4537,"服":4538,"朔":4539,"朕":4540,"朗":4541,"望":4542,"朝":4543,"朞":4544,"期":4545,"朦":4546,"朧":4547,"木":4548,"未":4549,"末":4550,"本":4551,"札":4552,"朮":4553,"术":4554,"朱":4555,"朴":4556,"朵":4557,"朶":4558,"朸":4559,"机":4560,"朽":4561,"杀":4562,"杂":4563,"权":4564,"杆":4565,"杉":4566,"杌":4567,"李":4568,"杏":4569,"材":4570,"村":4571,"杓":4572,"杖":4573,"杙":4574,"杜":4575,"杞":4576,"束":4577,"杠":4578,"条":4579,"杣":4580,"来":4581,"杨":4582,"杪":4583,"杭":4584,"杯":4585,"杰":4586,"東":4587,"杲":4588,"杳":4589,"杵":4590,"杷":4591,"杻":4592,"杼":4593,"松":4594,"板":4595,"极":4596,"构":4597,"枇":4598,"枉":4599,"枋":4600,"枏":4601,"析":4602,"枓":4603,"枕":4604,"林":4605,"枚":4606,"果":4607,"枝":4608,"枠":4609,"枢":4610,"枪":4611,"枫":4612,"枯":4613,"枰":4614,"枳":4615,"架":4616,"枸":4617,"枹":4618,"枻":4619,"枾":4620,"柂":4621,"柄":4622,"柅":4623,"柎":4624,"柏":4625,"某":4626,"柑":4627,"柒":4628,"染":4629,"柔":4630,"柘":4631,"柚":4632,"柜":4633,"柝":4634,"柞":4635,"查":4636,"柩":4637,"柬":4638,"柯":4639,"柰":4640,"柱":4641,"柳":4642,"柴":4643,"柵":4644,"査":4645,"柿":4646,"栃":4647,"栄":4648,"标":4649,"栍":4650,"树":4651,"栒":4652,"栓":4653,"栖":4654,"栗":4655,"栞":4656,"校":4657,"栢":4658,"栩":4659,"株":4660,"栯":4661,"栱":4662,"栶":4663,"样":4664,"核":4665,"根":4666,"栻":4667,"格":4668,"栽":4669,"栿":4670,"桀":4671,"桂":4672,"桃":4673,"案":4674,"桎":4675,"桐":4676,"桑":4677,"桓":4678,"桔":4679,"桜":4680,"桥":4681,"桧":4682,"桭":4683,"桱":4684,"桶":4685,"桿":4686,"梀":4687,"梁":4688,"梃":4689,"梅":4690,"梆":4691,"梏":4692,"梓":4693,"梔":4694,"梗":4695,"條":4696,"梟":4697,"梠":4698,"梡":4699,"梢":4700,"梦":4701,"梧":4702,"梨":4703,"梭":4704,"梯":4705,"械":4706,"梱":4707,"梲":4708,"梳":4709,"梵":4710,"梶":4711,"棄":4712,"棅":4713,"棉":4714,"棊":4715,"棋":4716,"棍":4717,"棐":4718,"棒":4719,"棕":4720,"棗":4721,"棘":4722,"棚":4723,"棟":4724,"棠":4725,"棣":4726,"棧":4727,"棨":4728,"棩":4729,"棪":4730,"棭":4731,"森":4732,"棱":4733,"棲":4734,"棹":4735,"棺":4736,"椀":4737,"椅":4738,"植":4739,"椎":4740,"椒":4741,"椗":4742,"椙":4743,"検":4744,"椧":4745,"椪":4746,"椴":4747,"椵":4748,"椷":4749,"椽":4750,"椿":4751,"楀":4752,"楊":4753,"楓":4754,"楔":4755,"楕":4756,"楗":4757,"楘":4758,"楙":4759,"楚":4760,"楞":4761,"楠":4762,"楡":4763,"楢":4764,"楣":4765,"楨":4766,"楪":4767,"楫":4768,"業":4769,"楮":4770,"楯":4771,"極":4772,"楷":4773,"楸":4774,"楹":4775,"楺":4776,"楼":4777,"楽":4778,"概":4779,"榄":4780,"榆":4781,"榊":4782,"榔":4783,"榕":4784,"榛":4785,"榜":4786,"榥":4787,"榦":4788,"榧":4789,"榮":4790,"榴":4791,"榻":4792,"槀":4793,"槁":4794,"槃":4795,"槇":4796,"槊":4797,"構":4798,"槌":4799,"槍":4800,"槎":4801,"槐":4802,"様":4803,"槥":4804,"槧":4805,"槨":4806,"槩":4807,"槪":4808,"槺":4809,"槻":4810,"槽":4811,"槿":4812,"樂":4813,"樊":4814,"樋":4815,"樑":4816,"樓":4817,"樗":4818,"標":4819,"樞":4820,"樟":4821,"模":4822,"樣":4823,"権":4824,"横":4825,"樫":4826,"樭":4827,"樵":4828,"樸":4829,"樹":4830,"樺":4831,"樽":4832,"樾":4833,"橃":4834,"橄":4835,"橈":4836,"橋":4837,"橐":4838,"橒":4839,"橓":4840,"橘":4841,"橙":4842,"橚":4843,"機":4844,"橡":4845,"橫":4846,"橿":4847,"檀":4848,"檄":4849,"檉":4850,"檍":4851,"檐":4852,"檔":4853,"檗":4854,"檛":4855,"檜":4856,"檠":4857,"檢":4858,"檣":4859,"檥":4860,"檮":4861,"檳":4862,"檻":4863,"櫂":4864,"櫃":4865,"櫓":4866,"櫚":4867,"櫛":4868,"櫟":4869,"櫡":4870,"櫶":4871,"櫻":4872,"欄":4873,"權":4874,"欌":4875,"欒":4876,"欖":4877,"欠":4878,"次":4879,"欢":4880,"欣":4881,"欧":4882,"欲":4883,"欺":4884,"欽":4885,"款":4886,"歂":4887,"歃":4888,"歆":4889,"歇":4890,"歌":4891,"歎":4892,"歐":4893,"歓":4894,"歙":4895,"歟":4896,"歡":4897,"止":4898,"正":4899,"此":4900,"步":4901,"武":4902,"歧":4903,"歩":4904,"歪":4905,"歯":4906,"歲":4907,"歳":4908,"歴":4909,"歷":4910,"歸":4911,"歹":4912,"死":4913,"歿":4914,"殃":4915,"殄":4916,"殆":4917,"殇":4918,"殉":4919,"殊":4920,"残":4921,"殖":4922,"殘":4923,"殞":4924,"殤":4925,"殮":4926,"殯":4927,"殲":4928,"殳":4929,"殴":4930,"段":4931,"殷":4932,"殺":4933,"殻":4934,"殼":4935,"殿":4936,"毀":4937,"毁":4938,"毅":4939,"毆":4940,"毋":4941,"毌":4942,"母":4943,"毎":4944,"每":4945,"毒":4946,"毓":4947,"比":4948,"毕":4949,"毖":4950,"毗":4951,"毘":4952,"毛":4953,"毫":4954,"毬":4955,"毯":4956,"氅":4957,"氈":4958,"氏":4959,"氐":4960,"民":4961,"氓":4962,"气":4963,"気":4964,"氡":4965,"氣":4966,"氧":4967,"水":4968,"氵":4969,"氷":4970,"永":4971,"氾":4972,"汀":4973,"汁":4974,"求":4975,"汇":4976,"汉":4977,"汎":4978,"汐":4979,"汕":4980,"汗":4981,"汙":4982,"汚":4983,"汛":4984,"汜":4985,"汝":4986,"汞":4987,"江":4988,"池":4989,"污":4990,"汤":4991,"汧":4992,"汨":4993,"汩":4994,"汪":4995,"汭":4996,"汰":4997,"汲":4998,"汴":4999,"汶":5000,"決":5001,"汽":5002,"汾":5003,"沁":5004,"沂":5005,"沃":5006,"沄":5007,"沅":5008,"沆":5009,"沇":5010,"沈":5011,"沉":5012,"沌":5013,"沍":5014,"沐":5015,"沒":5016,"沓":5017,"沔":5018,"沕":5019,"沖":5020,"沘":5021,"沙":5022,"沚":5023,"沛":5024,"沟":5025,"没":5026,"沢":5027,"沪":5028,"沫":5029,"沬":5030,"沮":5031,"沰":5032,"沱":5033,"河":5034,"沸":5035,"油":5036,"治":5037,"沼":5038,"沽":5039,"沾":5040,"沿":5041,"況":5042,"泂":5043,"泄":5044,"泇":5045,"泉":5046,"泊":5047,"泌":5048,"泓":5049,"法":5050,"泗":5051,"泚":5052,"泛":5053,"泞":5054,"泟":5055,"泡":5056,"波":5057,"泣":5058,"泥":5059,"注":5060,"泫":5061,"泮":5062,"泯":5063,"泰":5064,"泳":5065,"泵":5066,"泸":5067,"泼":5068,"泽":5069,"洁":5070,"洄":5071,"洋":5072,"洌":5073,"洑":5074,"洗":5075,"洙":5076,"洛":5077,"洞":5078,"洤":5079,"津":5080,"洨":5081,"洩":5082,"洪":5083,"洬":5084,"洮":5085,"洱":5086,"洲":5087,"洵":5088,"洶":5089,"洸":5090,"洹":5091,"洺":5092,"活":5093,"洽":5094,"派":5095,"流":5096,"浄":5097,"浅":5098,"测":5099,"济":5100,"浑":5101,"浒":5102,"浔":5103,"浙":5104,"浚":5105,"浜":5106,"浞":5107,"浣":5108,"浥":5109,"浦":5110,"浩":5111,"浪":5112,"浬":5113,"浮":5114,"浴":5115,"海":5116,"浸":5117,"浹":5118,"浻":5119,"浿":5120,"涀":5121,"涂":5122,"涅":5123,"涇":5124,"消":5125,"涉":5126,"涌":5127,"涍":5128,"涎":5129,"涑":5130,"涓":5131,"涕":5132,"涙":5133,"涛":5134,"润":5135,"涪":5136,"涮":5137,"涯":5138,"液":5139,"涵":5140,"涸":5141,"涼":5142,"涿":5143,"淀":5144,"淃":5145,"淄":5146,"淅":5147,"淆":5148,"淇":5149,"淋":5150,"淌":5151,"淏":5152,"淐":5153,"淑":5154,"淖":5155,"淘":5156,"淙":5157,"淚":5158,"淝":5159,"淞":5160,"淡":5161,"淥":5162,"淨":5163,"淪":5164,"淫":5165,"淬":5166,"淮":5167,"淯":5168,"淰":5169,"深":5170,"淳":5171,"淵":5172,"混":5173,"淸":5174,"淹":5175,"淺":5176,"添":5177,"清":5178,"済":5179,"渉":5180,"渋":5181,"渓":5182,"渕":5183,"渗":5184,"渙":5185,"渚":5186,"減":5187,"渝":5188,"渟":5189,"渠":5190,"渡":5191,"渢":5192,"渤":5193,"渥":5194,"渦":5195,"温":5196,"渫":5197,"測":5198,"渭":5199,"港":5200,"渲":5201,"渴":5202,"渶":5203,"游":5204,"渻":5205,"渼":5206,"渽":5207,"渾":5208,"湃":5209,"湄":5210,"湊":5211,"湌":5212,"湍":5213,"湑":5214,"湔":5215,"湕":5216,"湖":5217,"湘":5218,"湙":5219,"湛":5220,"湜":5221,"湝":5222,"湞":5223,"湟":5224,"湣":5225,"湧":5226,"湩":5227,"湫":5228,"湮":5229,"湯":5230,"湲":5231,"湳":5232,"湺":5233,"湾":5234,"湿":5235,"満":5236,"溆":5237,"溍":5238,"源":5239,"準":5240,"溜":5241,"溝":5242,"溟":5243,"溢":5244,"溥":5245,"溪":5246,"溫":5247,"溭":5248,"溯":5249,"溱":5250,"溵":5251,"溶":5252,"溷":5253,"溺":5254,"滁":5255,"滂":5256,"滃":5257,"滄":5258,"滅":5259,"滇":5260,"滉":5261,"滋":5262,"滌":5263,"滎":5264,"滏":5265,"滑":5266,"滓":5267,"滔":5268,"滕":5269,"滘":5270,"滙":5271,"滝":5272,"满":5273,"滨":5274,"滩":5275,"滫":5276,"滬":5277,"滮":5278,"滯":5279,"滲":5280,"滴":5281,"滸":5282,"滹":5283,"滾":5284,"滿":5285,"漁":5286,"漂":5287,"漆":5288,"漏":5289,"漑":5290,"演":5291,"漕":5292,"漚":5293,"漠":5294,"漢":5295,"漣":5296,"漪":5297,"漫":5298,"漬":5299,"漱":5300,"漲":5301,"漳":5302,"漵":5303,"漸":5304,"漹":5305,"漿":5306,"潁":5307,"潑":5308,"潔":5309,"潗":5310,"潘":5311,"潙":5312,"潚":5313,"潛":5314,"潜":5315,"潝":5316,"潞":5317,"潟":5318,"潢":5319,"潤":5320,"潦":5321,"潭":5322,"潮":5323,"潯":5324,"潰":5325,"潴":5326,"潺":5327,"潼":5328,"潽":5329,"潾":5330,"澁":5331,"澂":5332,"澄":5333,"澈":5334,"澋":5335,"澍":5336,"澎":5337,"澐":5338,"澔":5339,"澕":5340,"澗":5341,"澜":5342,"澟":5343,"澠":5344,"澡":5345,"澣":5346,"澤":5347,"澧":5348,"澬":5349,"澮":5350,"澯":5351,"澱":5352,"澳":5353,"澶":5354,"澹":5355,"澾":5356,"激":5357,"濁":5358,"濂":5359,"濃":5360,"濈":5361,"濊":5362,"濕":5363,"濚":5364,"濞":5365,"濟":5366,"濠":5367,"濡":5368,"濤":5369,"濩":5370,"濫":5371,"濬":5372,"濮":5373,"濯":5374,"濱":5375,"濶":5376,"濸":5377,"濺":5378,"濾":5379,"瀁":5380,"瀅":5381,"瀆":5382,"瀉":5383,"瀋":5384,"瀍":5385,"瀏":5386,"瀑":5387,"瀕":5388,"瀗":5389,"瀘":5390,"瀚":5391,"瀛":5392,"瀜":5393,"瀝":5394,"瀞":5395,"瀟":5396,"瀠":5397,"瀣":5398,"瀧":5399,"瀨":5400,"瀬":5401,"瀯":5402,"瀰":5403,"瀲":5404,"瀷":5405,"瀹":5406,"瀾":5407,"瀿":5408,"灃":5409,"灊":5410,"灌":5411,"灏":5412,"灐":5413,"灑":5414,"灘":5415,"灝":5416,"灣":5417,"灤":5418,"火":5419,"灯":5420,"灰":5421,"灵":5422,"灸":5423,"灼":5424,"災":5425,"炁":5426,"炅":5427,"炆":5428,"炊":5429,"炎":5430,"炒":5431,"炖":5432,"炘":5433,"炙":5434,"炚":5435,"炜":5436,"炡":5437,"炤":5438,"炫":5439,"炬":5440,"炭":5441,"炮":5442,"炯":5443,"炳":5444,"炷":5445,"炸":5446,"点":5447,"為":5448,"炼":5449,"烇":5450,"烈":5451,"烉":5452,"烋":5453,"烍":5454,"烏":5455,"烘":5456,"烙":5457,"烜":5458,"烝":5459,"烟":5460,"烤":5461,"烧":5462,"热":5463,"烱":5464,"烹":5465,"烽":5466,"焄":5467,"焉":5468,"焌":5469,"焕":5470,"焙":5471,"焚":5472,"焜":5473,"焞":5474,"焠":5475,"無":5476,"焦":5477,"焰":5478,"然":5479,"焼":5480,"煇":5481,"煉":5482,"煊":5483,"煌":5484,"煎":5485,"煐":5486,"煒":5487,"煕":5488,"煖":5489,"煙":5490,"煚":5491,"煜":5492,"煞":5493,"煤":5494,"煥":5495,"煦":5496,"照":5497,"煩":5498,"煬":5499,"煮":5500,"煳":5501,"煽":5502,"熀":5503,"熈":5504,"熊":5505,"熏":5506,"熒":5507,"熔":5508,"熙":5509,"熟":5510,"熠":5511,"熢":5512,"熤":5513,"熱":5514,"熳":5515,"熹":5516,"熺":5517,"熻":5518,"熽":5519,"熾":5520,"熿":5521,"燁":5522,"燃":5523,"燄":5524,"燈":5525,"燉":5526,"燎":5527,"燐":5528,"燒":5529,"燔":5530,"燕":5531,"燝":5532,"營":5533,"燥":5534,"燦":5535,"燧":5536,"燭":5537,"燮":5538,"燻":5539,"燼":5540,"燾":5541,"燿":5542,"爀":5543,"爆":5544,"爌":5545,"爐":5546,"爛":5547,"爨":5548,"爪":5549,"爬":5550,"爭":5551,"爰":5552,"爱":5553,"爲":5554,"爵":5555,"父":5556,"爷":5557,"爸":5558,"爺":5559,"爻":5560,"爽":5561,"爾":5562,"牀":5563,"牁":5564,"牂":5565,"牆":5566,"片":5567,"版":5568,"牌":5569,"牒":5570,"牔":5571,"牘":5572,"牙":5573,"牛":5574,"牝":5575,"牟":5576,"牡":5577,"牢":5578,"牧":5579,"物":5580,"牲":5581,"特":5582,"牼":5583,"牽":5584,"犀":5585,"犁":5586,"犍":5587,"犛":5588,"犢":5589,"犧":5590,"犨":5591,"犫":5592,"犬":5593,"犯":5594,"犴":5595,"状":5596,"犹":5597,"狀":5598,"狁":5599,"狂":5600,"狃":5601,"狄":5602,"狎":5603,"狐":5604,"狗":5605,"狙":5606,"狛":5607,"狡":5608,"狩":5609,"独":5610,"狭":5611,"狷":5612,"狸":5613,"狹":5614,"狻":5615,"狼":5616,"猇":5617,"猊":5618,"猕":5619,"猖":5620,"猗":5621,"猛":5622,"猜":5623,"猝":5624,"猟":5625,"猥":5626,"猩":5627,"猪":5628,"猫":5629,"献":5630,"猴":5631,"猶":5632,"猷":5633,"猾":5634,"猿":5635,"獄":5636,"獅":5637,"獍":5638,"獎":5639,"獐":5640,"獒":5641,"獗":5642,"獣":5643,"獦":5644,"獨":5645,"獬":5646,"獰":5647,"獲":5648,"獳":5649,"獵":5650,"獸":5651,"獺":5652,"獻":5653,"玁":5654,"玃":5655,"玄":5656,"玆":5657,"率":5658,"玉":5659,"玊":5660,"王":5661,"玎":5662,"玔":5663,"玖":5664,"玗":5665,"玘":5666,"玛":5667,"玜":5668,"玟":5669,"玠":5670,"玢":5671,"玧":5672,"玩":5673,"玪":5674,"玫":5675,"玭":5676,"环":5677,"现":5678,"玲":5679,"玳":5680,"玶":5681,"玹":5682,"玽":5683,"珀":5684,"珂":5685,"珈":5686,"珉":5687,"珊":5688,"珌":5689,"珍":5690,"珏":5691,"珖":5692,"珙":5693,"珚":5694,"珝":5695,"珞":5696,"珠":5697,"珣":5698,"珤":5699,"珥":5700,"珦":5701,"珩":5702,"珪":5703,"班":5704,"珮":5705,"珷":5706,"珹":5707,"珽":5708,"現":5709,"琂":5710,"球":5711,"琄":5712,"琅":5713,"理":5714,"琇":5715,"琉":5716,"琊":5717,"琓":5718,"琔":5719,"琚":5720,"琛":5721,"琠":5722,"琡":5723,"琢":5724,"琤":5725,"琥":5726,"琦":5727,"琨":5728,"琪":5729,"琫":5730,"琬":5731,"琮":5732,"琯":5733,"琰":5734,"琳":5735,"琴":5736,"琵":5737,"琶":5738,"琸":5739,"琿":5740,"瑀":5741,"瑁":5742,"瑃":5743,"瑄":5744,"瑅":5745,"瑈":5746,"瑊":5747,"瑋":5748,"瑎":5749,"瑔":5750,"瑕":5751,"瑗":5752,"瑙":5753,"瑚":5754,"瑛":5755,"瑜":5756,"瑞":5757,"瑟":5758,"瑠":5759,"瑢":5760,"瑣":5761,"瑤":5762,"瑨":5763,"瑩":5764,"瑪":5765,"瑬":5766,"瑭":5767,"瑯":5768,"瑰":5769,"瑱":5770,"瑲":5771,"瑶":5772,"瑾":5773,"璂":5774,"璃":5775,"璆":5776,"璇":5777,"璉":5778,"璋":5779,"璐":5780,"璘":5781,"璜":5782,"璝":5783,"璞":5784,"璟":5785,"璠":5786,"璡":5787,"璣":5788,"璥":5789,"璧":5790,"璨":5791,"璩":5792,"璫":5793,"環":5794,"璲":5795,"璵":5796,"璹":5797,"璽":5798,"璿":5799,"瓆":5800,"瓉":5801,"瓊":5802,"瓔":5803,"瓘":5804,"瓚":5805,"瓛":5806,"瓜":5807,"瓠":5808,"瓢":5809,"瓣":5810,"瓦":5811,"瓮":5812,"瓴":5813,"瓶":5814,"瓷":5815,"瓿":5816,"甀":5817,"甁":5818,"甄":5819,"甑":5820,"甓":5821,"甕":5822,"甘":5823,"甚":5824,"甛":5825,"甜":5826,"生":5827,"產":5828,"産":5829,"甥":5830,"甦":5831,"用":5832,"甫":5833,"甬":5834,"甯":5835,"田":5836,"由":5837,"甲":5838,"申":5839,"电":5840,"男":5841,"甸":5842,"町":5843,"画":5844,"畀":5845,"畅":5846,"畇":5847,"界":5848,"畎":5849,"畏":5850,"畑":5851,"畓":5852,"畔":5853,"留":5854,"畛":5855,"畜":5856,"畝":5857,"畠":5858,"畢":5859,"畤":5860,"略":5861,"畦":5862,"畨":5863,"番":5864,"畫":5865,"畯":5866,"異":5867,"畵":5868,"當":5869,"畷":5870,"畸":5871,"畹":5872,"畺":5873,"畿":5874,"疆":5875,"疇":5876,"疊":5877,"疋":5878,"疎":5879,"疏":5880,"疑":5881,"疗":5882,"疣":5883,"疫":5884,"疱":5885,"疲":5886,"疳":5887,"疵":5888,"疸":5889,"疹":5890,"疼":5891,"疽":5892,"疾":5893,"痂":5894,"病":5895,"症":5896,"痍":5897,"痒":5898,"痔":5899,"痕":5900,"痘":5901,"痙":5902,"痛":5903,"痢":5904,"痤":5905,"痰":5906,"痲":5907,"痳":5908,"痴":5909,"痹":5910,"痺":5911,"痼":5912,"瘀":5913,"瘉":5914,"瘋":5915,"瘍":5916,"瘙":5917,"瘟":5918,"瘠":5919,"瘡":5920,"瘢":5921,"瘤":5922,"瘦":5923,"瘧":5924,"瘻":5925,"療":5926,"癌":5927,"癎":5928,"癒":5929,"癖":5930,"癘":5931,"癜":5932,"癡":5933,"癢":5934,"癤":5935,"癩":5936,"癬":5937,"癭":5938,"癮":5939,"癰":5940,"癲":5941,"癸":5942,"発":5943,"登":5944,"發":5945,"白":5946,"百":5947,"皁":5948,"皂":5949,"的":5950,"皆":5951,"皇":5952,"皈":5953,"皋":5954,"皎":5955,"皐":5956,"皓":5957,"皖":5958,"皜":5959,"皝":5960,"皞":5961,"皥":5962,"皮":5963,"皴":5964,"皺":5965,"皿":5966,"盂":5967,"盃":5968,"盆":5969,"盈":5970,"益":5971,"盋":5972,"盌":5973,"盎":5974,"盐":5975,"监":5976,"盒":5977,"盖":5978,"盗":5979,"盘":5980,"盛":5981,"盜":5982,"盞":5983,"盟":5984,"盡":5985,"監":5986,"盤":5987,"盥":5988,"盧":5989,"盩":5990,"盪":5991,"目":5992,"盱":5993,"盲":5994,"直":5995,"相":5996,"盺":5997,"盼":5998,"盾":5999,"眀":6000,"省":6001,"眄":6002,"眈":6003,"眉":6004,"看":6005,"県":6006,"眙":6007,"眚":6008,"眞":6009,"真":6010,"眠":6011,"眩":6012,"眭":6013,"眴":6014,"眷":6015,"眸":6016,"眺":6017,"眼":6018,"眾":6019,"着":6020,"睃":6021,"睆":6022,"睔":6023,"睛":6024,"睟":6025,"睡":6026,"睢":6027,"督":6028,"睦":6029,"睨":6030,"睹":6031,"睺":6032,"睾":6033,"睿":6034,"瞋":6035,"瞑":6036,"瞞":6037,"瞥":6038,"瞬":6039,"瞭":6040,"瞯":6041,"瞰":6042,"瞳":6043,"瞻":6044,"瞼":6045,"瞿":6046,"矗":6047,"矛":6048,"矜":6049,"矢":6050,"矣":6051,"知":6052,"矩":6053,"短":6054,"矮":6055,"矯":6056,"石":6057,"矼":6058,"砂":6059,"砌":6060,"砒":6061,"研":6062,"砚":6063,"砣":6064,"砥":6065,"砦":6066,"砧":6067,"砬":6068,"砮":6069,"砲":6070,"破":6071,"砻":6072,"硅":6073,"硏":6074,"硝":6075,"硡":6076,"硫":6077,"硬":6078,"确":6079,"硯":6080,"硼":6081,"碁":6082,"碇":6083,"碉":6084,"碌":6085,"碍":6086,"碎":6087,"碏":6088,"碑":6089,"碓":6090,"碗":6091,"碟":6092,"碣":6093,"碧":6094,"碩":6095,"碭":6096,"確":6097,"碻":6098,"碼":6099,"磁":6100,"磊":6101,"磋":6102,"磎":6103,"磐":6104,"磔":6105,"磚":6106,"磡":6107,"磧":6108,"磨":6109,"磬":6110,"磯":6111,"磵":6112,"磷":6113,"磺":6114,"磻":6115,"磼":6116,"磾":6117,"礁":6118,"礎":6119,"礖":6120,"礙":6121,"礝":6122,"礡":6123,"礦":6124,"礩":6125,"礪":6126,"礫":6127,"礬":6128,"礱":6129,"示":6130,"礼":6131,"礽":6132,"社":6133,"祀":6134,"祁":6135,"祇":6136,"祈":6137,"祉":6138,"祏":6139,"祐":6140,"祔":6141,"祕":6142,"祖":6143,"祗":6144,"祘":6145,"祚":6146,"祛":6147,"祜":6148,"祝":6149,"神":6150,"祟":6151,"祠":6152,"祢":6153,"祥":6154,"祧":6155,"票":6156,"祭":6157,"祹":6158,"祺":6159,"祿":6160,"禁":6161,"禄":6162,"禅":6163,"禍":6164,"禎":6165,"福":6166,"禑":6167,"禔":6168,"禕":6169,"禖":6170,"禛":6171,"禦":6172,"禧":6173,"禨":6174,"禩":6175,"禪":6176,"禮":6177,"禰":6178,"禱":6179,"禳":6180,"禵":6181,"禹":6182,"禺":6183,"离":6184,"禽":6185,"禾":6186,"禿":6187,"秀":6188,"私":6189,"秉":6190,"秊":6191,"秋":6192,"种":6193,"秏":6194,"科":6195,"秒":6196,"秘":6197,"租":6198,"秣":6199,"秤":6200,"秦":6201,"秧":6202,"秩":6203,"秫":6204,"秭":6205,"积":6206,"称":6207,"移":6208,"稀":6209,"稅":6210,"稈":6211,"程":6212,"稍":6213,"税":6214,"稔":6215,"稗":6216,"稙":6217,"稚":6218,"稛":6219,"稜":6220,"稟":6221,"稠":6222,"稣":6223,"稧":6224,"種":6225,"稱":6226,"稲":6227,"稳":6228,"稶":6229,"稷":6230,"稹":6231,"稻":6232,"稼":6233,"稽":6234,"稿":6235,"穀":6236,"穂":6237,"穆":6238,"穉":6239,"積":6240,"穎":6241,"穏":6242,"穗":6243,"穝":6244,"穟":6245,"穠":6246,"穡":6247,"穢":6248,"穨":6249,"穩":6250,"穫":6251,"穰":6252,"穴":6253,"究":6254,"穷":6255,"穹":6256,"空":6257,"穼":6258,"穿":6259,"突":6260,"窄":6261,"窈":6262,"窒":6263,"窓":6264,"窕":6265,"窖":6266,"窗":6267,"窘":6268,"窙":6269,"窟":6270,"窦":6271,"窩":6272,"窪":6273,"窮":6274,"窯":6275,"窸":6276,"窺":6277,"窿":6278,"竄":6279,"竅":6280,"竇":6281,"竈":6282,"竊":6283,"立":6284,"竗":6285,"站":6286,"竜":6287,"竝":6288,"竞":6289,"竟":6290,"章":6291,"竣":6292,"童":6293,"竦":6294,"竩":6295,"竪":6296,"竭":6297,"端":6298,"竱":6299,"竴":6300,"競":6301,"竹":6302,"竺":6303,"竿":6304,"笁":6305,"笄":6306,"笈":6307,"笏":6308,"笑":6309,"笒":6310,"笙":6311,"笛":6312,"笞":6313,"笠":6314,"笥":6315,"符":6316,"笨":6317,"第":6318,"笭":6319,"笮":6320,"笳":6321,"笵":6322,"笹":6323,"筅":6324,"筆":6325,"等":6326,"筋":6327,"筌":6328,"筍":6329,"筏":6330,"筐":6331,"筑":6332,"筒":6333,"答":6334,"策":6335,"筝":6336,"筠":6337,"筧":6338,"筬":6339,"筮":6340,"筰":6341,"筱":6342,"筲":6343,"筵":6344,"筽":6345,"简":6346,"箆":6347,"箇":6348,"箋":6349,"箎":6350,"箏":6351,"箐":6352,"箒":6353,"箔":6354,"箕":6355,"算":6356,"箚":6357,"箝":6358,"管":6359,"箭":6360,"箱":6361,"箴":6362,"箸":6363,"節":6364,"篁":6365,"範":6366,"篆":6367,"篇":6368,"築":6369,"篋":6370,"篙":6371,"篝":6372,"篠":6373,"篤":6374,"篪":6375,"篮":6376,"篷":6377,"篾":6378,"簇":6379,"簋":6380,"簑":6381,"簒":6382,"簗":6383,"簞":6384,"簠":6385,"簡":6386,"簧":6387,"簪":6388,"簫":6389,"簷":6390,"簽":6391,"簾":6392,"簿":6393,"籀":6394,"籁":6395,"籃":6396,"籌":6397,"籍":6398,"籐":6399,"籒":6400,"籠":6401,"籤":6402,"籬":6403,"米":6404,"类":6405,"粁":6406,"粄":6407,"粉":6408,"粋":6409,"粑":6410,"粒":6411,"粕":6412,"粗":6413,"粘":6414,"粛":6415,"粟":6416,"粢":6417,"粤":6418,"粥":6419,"粦":6420,"粧":6421,"粮":6422,"粱":6423,"粲":6424,"粳":6425,"粵":6426,"粹":6427,"精":6428,"糀":6429,"糊":6430,"糓":6431,"糕":6432,"糖":6433,"糙":6434,"糜":6435,"糞":6436,"糟":6437,"糠":6438,"糧":6439,"糴":6440,"糶":6441,"糸":6442,"糺":6443,"系":6444,"糾":6445,"紀":6446,"紂":6447,"約":6448,"紅":6449,"紆":6450,"紇":6451,"紈":6452,"紊":6453,"紋":6454,"納":6455,"紐":6456,"紒":6457,"紓":6458,"純":6459,"紗":6460,"紘":6461,"紙":6462,"級":6463,"紛":6464,"素":6465,"紡":6466,"索":6467,"紧":6468,"紫":6469,"紬":6470,"紮":6471,"累":6472,"細":6473,"紳":6474,"紵":6475,"紹":6476,"紺":6477,"紾":6478,"終":6479,"絃":6480,"組":6481,"絅":6482,"絆":6483,"経":6484,"結":6485,"絕":6486,"絙":6487,"絞":6488,"絟":6489,"絡":6490,"絢":6491,"給":6492,"絨":6493,"絪":6494,"絮":6495,"絰":6496,"統":6497,"絲":6498,"絳":6499,"絵":6500,"絶":6501,"絹":6502,"絺":6503,"絿":6504,"綃":6505,"綉":6506,"綎":6507,"綏":6508,"經":6509,"継":6510,"続":6511,"綜":6512,"綝":6513,"綠":6514,"綢":6515,"綦":6516,"綧":6517,"綫":6518,"綬":6519,"維":6520,"綰":6521,"綱":6522,"網":6523,"綴":6524,"綵":6525,"綸":6526,"綺":6527,"綻":6528,"綽":6529,"綾":6530,"綿":6531,"緃":6532,"緄":6533,"緇":6534,"緊":6535,"緋":6536,"総":6537,"緑":6538,"緒":6539,"緖":6540,"緘":6541,"線":6542,"緜":6543,"緝":6544,"緞":6545,"締":6546,"緡":6547,"緣":6548,"緤":6549,"編":6550,"緩":6551,"緬":6552,"緯":6553,"練":6554,"緻":6555,"縁":6556,"縄":6557,"縉":6558,"縊":6559,"縕":6560,"縛":6561,"縝":6562,"縞":6563,"縟":6564,"縠":6565,"縡":6566,"縢":6567,"縣":6568,"縦":6569,"縫":6570,"縮":6571,"縯":6572,"縱":6573,"縷":6574,"縻":6575,"總":6576,"績":6577,"繁":6578,"繃":6579,"繄":6580,"繆":6581,"繇":6582,"繍":6583,"繒":6584,"織":6585,"繕":6586,"繙":6587,"繚":6588,"繞":6589,"繡":6590,"繩":6591,"繪":6592,"繫":6593,"繭":6594,"繰":6595,"繹":6596,"繻":6597,"繼":6598,"繽":6599,"纂":6600,"續":6601,"纏":6602,"纓":6603,"纖":6604,"纘":6605,"纛":6606,"纜":6607,"红":6608,"约":6609,"级":6610,"纪":6611,"纯":6612,"纳":6613,"纸":6614,"纽":6615,"线":6616,"组":6617,"细":6618,"织":6619,"终":6620,"绍":6621,"经":6622,"结":6623,"绕":6624,"绘":6625,"给":6626,"络":6627,"绝":6628,"统":6629,"绣":6630,"继":6631,"续":6632,"维":6633,"绵":6634,"绸":6635,"综":6636,"绾":6637,"绿":6638,"缇":6639,"缓":6640,"编":6641,"缘":6642,"缩":6643,"缶":6644,"缸":6645,"缺":6646,"缻":6647,"缽":6648,"缾":6649,"罃":6650,"罍":6651,"罐":6652,"网":6653,"罔":6654,"罕":6655,"罗":6656,"罡":6657,"罪":6658,"置":6659,"罰":6660,"署":6661,"罵":6662,"罷":6663,"罹":6664,"罽":6665,"羅":6666,"羆":6667,"羈":6668,"羊":6669,"羋":6670,"羌":6671,"美":6672,"羑":6673,"羔":6674,"羗":6675,"羚":6676,"羞":6677,"羡":6678,"羣":6679,"群":6680,"羨":6681,"義":6682,"羯":6683,"羲":6684,"羸":6685,"羹":6686,"羽":6687,"羿":6688,"翁":6689,"翃":6690,"翅":6691,"翊":6692,"翌":6693,"翎":6694,"習":6695,"翔":6696,"翕":6697,"翟":6698,"翠":6699,"翡":6700,"翦":6701,"翩":6702,"翫":6703,"翬":6704,"翮":6705,"翰":6706,"翳":6707,"翹":6708,"翻":6709,"翼":6710,"翽":6711,"耀":6712,"老":6713,"考":6714,"者":6715,"耆":6716,"耉":6717,"而":6718,"耐":6719,"耒":6720,"耔":6721,"耕":6722,"耗":6723,"耘":6724,"耙":6725,"耨":6726,"耭":6727,"耳":6728,"耶":6729,"耷":6730,"耽":6731,"耿":6732,"聃":6733,"聆":6734,"聊":6735,"职":6736,"联":6737,"聖":6738,"聘":6739,"聚":6740,"聞":6741,"聟":6742,"聡":6743,"聯":6744,"聰":6745,"聲":6746,"聳":6747,"聴":6748,"聵":6749,"聶":6750,"職":6751,"聽":6752,"聾":6753,"聿":6754,"肃":6755,"肄":6756,"肅":6757,"肆":6758,"肇":6759,"肉":6760,"肋":6761,"肌":6762,"肖":6763,"肘":6764,"肚":6765,"肛":6766,"肝":6767,"股":6768,"肢":6769,"肥":6770,"肩":6771,"肪":6772,"肯":6773,"肱":6774,"育":6775,"肴":6776,"肸":6777,"肹":6778,"肺":6779,"胃":6780,"胄":6781,"胆":6782,"胊":6783,"背":6784,"胎":6785,"胖":6786,"胙":6787,"胚":6788,"胜":6789,"胞":6790,"胡":6791,"胤":6792,"胥":6793,"胯":6794,"胱":6795,"胴":6796,"胸":6797,"能":6798,"脂":6799,"脅":6800,"脆":6801,"脇":6802,"脈":6803,"脊":6804,"脏":6805,"脐":6806,"脑":6807,"脘":6808,"脚":6809,"脛":6810,"脣":6811,"脩":6812,"脫":6813,"脯":6814,"脱":6815,"脷":6816,"脸":6817,"脹":6818,"脾":6819,"腄":6820,"腆":6821,"腊":6822,"腋":6823,"腎":6824,"腐":6825,"腑":6826,"腔":6827,"腕":6828,"腥":6829,"腦":6830,"腫":6831,"腰":6832,"腱":6833,"腳":6834,"腸":6835,"腹":6836,"腺":6837,"腻":6838,"腿":6839,"膀":6840,"膈":6841,"膊":6842,"膏":6843,"膚":6844,"膜":6845,"膝":6846,"膠":6847,"膣":6848,"膨":6849,"膩":6850,"膳":6851,"膵":6852,"膺":6853,"膽":6854,"膾":6855,"膿":6856,"臀":6857,"臂":6858,"臄":6859,"臆":6860,"臍":6861,"臏":6862,"臓":6863,"臘":6864,"臙":6865,"臚":6866,"臟":6867,"臣":6868,"臥":6869,"臧":6870,"臨":6871,"自":6872,"臭":6873,"至":6874,"致":6875,"臶":6876,"臺":6877,"臻":6878,"臼":6879,"臾":6880,"舂":6881,"舅":6882,"舆":6883,"與":6884,"興":6885,"舉":6886,"舊":6887,"舌":6888,"舍":6889,"舎":6890,"舒":6891,"舖":6892,"舗":6893,"舘":6894,"舛":6895,"舜":6896,"舞":6897,"舟":6898,"舡":6899,"航":6900,"舫":6901,"般":6902,"舰":6903,"舳":6904,"舵":6905,"舶":6906,"舷":6907,"舸":6908,"船":6909,"舺":6910,"艀":6911,"艅":6912,"艇":6913,"艋":6914,"艎":6915,"艙":6916,"艤":6917,"艦":6918,"艧":6919,"艮":6920,"良":6921,"艱":6922,"色":6923,"艳":6924,"艶":6925,"艸":6926,"艹":6927,"艺":6928,"艾":6929,"节":6930,"芇":6931,"芈":6932,"芋":6933,"芍":6934,"芎":6935,"芑":6936,"芒":6937,"芘":6938,"芙":6939,"芚":6940,"芝":6941,"芟":6942,"芥":6943,"芦":6944,"芩":6945,"芬":6946,"芭":6947,"芮":6948,"芯":6949,"花":6950,"芳":6951,"芷":6952,"芸":6953,"芹":6954,"芻":6955,"芼":6956,"芽":6957,"芿":6958,"苅":6959,"苍":6960,"苏":6961,"苑":6962,"苓":6963,"苔":6964,"苗":6965,"苛":6966,"苞":6967,"苟":6968,"苡":6969,"若":6970,"苦":6971,"苧":6972,"苩":6973,"苫":6974,"苯":6975,"英":6976,"苳":6977,"苴":6978,"苻":6979,"苽":6980,"苾":6981,"茁":6982,"茂":6983,"范":6984,"茄":6985,"茅":6986,"茉":6987,"茗":6988,"茨":6989,"茫":6990,"茯":6991,"茱":6992,"茲":6993,"茳":6994,"茴":6995,"茵":6996,"茶":6997,"茷":6998,"茸":6999,"茹":7000,"荀":7001,"荃":7002,"荆":7003,"荇":7004,"草":7005,"荊":7006,"荏":7007,"荑":7008,"荒":7009,"荔":7010,"荖":7011,"荘":7012,"荡":7013,"荣":7014,"荪":7015,"药":7016,"荳":7017,"荷":7018,"荻":7019,"荼":7020,"莆":7021,"莉":7022,"莊":7023,"莋":7024,"莎":7025,"莒":7026,"莓":7027,"莔":7028,"莖":7029,"莘":7030,"莞":7031,"莢":7032,"莩":7033,"莪":7034,"莫":7035,"莱":7036,"莲":7037,"莽":7038,"莿":7039,"菀":7040,"菁":7041,"菅":7042,"菇":7043,"菉":7044,"菊":7045,"菌":7046,"菑":7047,"菓":7048,"菖":7049,"菜":7050,"菟":7051,"菡":7052,"菤":7053,"菩":7054,"菫":7055,"華":7056,"菰":7057,"菱":7058,"菲":7059,"菴":7060,"菹":7061,"菻":7062,"菽":7063,"萃":7064,"萄":7065,"萇":7066,"萊":7067,"萌":7068,"萍":7069,"萎":7070,"营":7071,"萧":7072,"萨":7073,"萩":7074,"萬":7075,"萱":7076,"萸":7077,"萼":7078,"落":7079,"葆":7080,"葉":7081,"葒":7082,"著":7083,"葛":7084,"葡":7085,"董":7086,"葦":7087,"葫":7088,"葬":7089,"葭":7090,"葯":7091,"葱":7092,"葵":7093,"葷":7094,"葺":7095,"蒋":7096,"蒐":7097,"蒔":7098,"蒙":7099,"蒜":7100,"蒡":7101,"蒯":7102,"蒲":7103,"蒴":7104,"蒸":7105,"蒹":7106,"蒻":7107,"蒼":7108,"蒿":7109,"蓀":7110,"蓁":7111,"蓂":7112,"蓄":7113,"蓆":7114,"蓉":7115,"蓋":7116,"蓍":7117,"蓑":7118,"蓓":7119,"蓚":7120,"蓝":7121,"蓥":7122,"蓩":7123,"蓬":7124,"蓮":7125,"蓴":7126,"蓼":7127,"蔀":7128,"蔑":7129,"蔓":7130,"蔗":7131,"蔘":7132,"蔚":7133,"蔟":7134,"蔡":7135,"蔣":7136,"蔥":7137,"蔬":7138,"蔭":7139,"蔴":7140,"蔵":7141,"蔷":7142,"蔺":7143,"蔽":7144,"蔿":7145,"蕃":7146,"蕆":7147,"蕉":7148,"蕎":7149,"蕓":7150,"蕕":7151,"蕖":7152,"蕙":7153,"蕣":7154,"蕤":7155,"蕨":7156,"蕩":7157,"蕪":7158,"蕭":7159,"蕾":7160,"薀":7161,"薄":7162,"薇":7163,"薈":7164,"薊":7165,"薍":7166,"薏":7167,"薑":7168,"薔":7169,"薗":7170,"薙":7171,"薛":7172,"薦":7173,"薨":7174,"薩":7175,"薪":7176,"薫":7177,"薬":7178,"薯":7179,"薰":7180,"薳":7181,"薷":7182,"薺":7183,"藁":7184,"藉":7185,"藍":7186,"藎":7187,"藏":7188,"藐":7189,"藕":7190,"藜":7191,"藝":7192,"藤":7193,"藥":7194,"藩":7195,"藪":7196,"藷":7197,"藹":7198,"藺":7199,"藻":7200,"藿":7201,"蘂":7202,"蘄":7203,"蘆":7204,"蘇":7205,"蘊":7206,"蘋":7207,"蘐":7208,"蘖":7209,"蘘":7210,"蘧":7211,"蘩":7212,"蘭":7213,"蘿":7214,"虎":7215,"虐":7216,"虒":7217,"虔":7218,"處":7219,"虚":7220,"虛":7221,"虜":7222,"虞":7223,"號":7224,"虡":7225,"虢":7226,"虧":7227,"虫":7228,"虯":7229,"虹":7230,"虺":7231,"蚁":7232,"蚂":7233,"蚊":7234,"蚌":7235,"蚓":7236,"蚕":7237,"蚠":7238,"蚡":7239,"蚣":7240,"蚤":7241,"蚩":7242,"蚪":7243,"蚬":7244,"蛆":7245,"蛇":7246,"蛋":7247,"蛔":7248,"蛙":7249,"蛛":7250,"蛞":7251,"蛟":7252,"蛤":7253,"蛭":7254,"蛮":7255,"蛸":7256,"蛹":7257,"蛾":7258,"蜀":7259,"蜂":7260,"蜃":7261,"蜆":7262,"蜈":7263,"蜉":7264,"蜘":7265,"蜚":7266,"蜜":7267,"蜡":7268,"蜺":7269,"蝌":7270,"蝎":7271,"蝓":7272,"蝕":7273,"蝗":7274,"蝟":7275,"蝠":7276,"蝣":7277,"蝦":7278,"蝨":7279,"蝮":7280,"蝴":7281,"蝶":7282,"蝸":7283,"蝾":7284,"螂":7285,"螈":7286,"融":7287,"螟":7288,"螢":7289,"螭":7290,"螳":7291,"螺":7292,"蟀":7293,"蟄":7294,"蟆":7295,"蟒":7296,"蟜":7297,"蟠":7298,"蟬":7299,"蟯":7300,"蟲":7301,"蟹":7302,"蟻":7303,"蟾":7304,"蠅":7305,"蠆":7306,"蠍":7307,"蠕":7308,"蠟":7309,"蠡":7310,"蠣":7311,"蠱":7312,"蠶":7313,"蠻":7314,"血":7315,"衆":7316,"行":7317,"衍":7318,"衒":7319,"術":7320,"街":7321,"衙":7322,"衛":7323,"衜":7324,"衝":7325,"衞":7326,"衡":7327,"衢":7328,"衣":7329,"补":7330,"表":7331,"衫":7332,"衰":7333,"衲":7334,"衷":7335,"衾":7336,"衿":7337,"袁":7338,"袂":7339,"袈":7340,"袋":7341,"袍":7342,"袒":7343,"袖":7344,"袞":7345,"袢":7346,"袤":7347,"被":7348,"袱":7349,"袳":7350,"袴":7351,"袷":7352,"裀":7353,"裁":7354,"裂":7355,"装":7356,"裏":7357,"裒":7358,"裔":7359,"裕":7360,"裘":7361,"裙":7362,"補":7363,"裝":7364,"裟":7365,"裡":7366,"裨":7367,"裱":7368,"裳":7369,"裴":7370,"裵":7371,"裸":7372,"裹":7373,"製":7374,"裾":7375,"複":7376,"褊":7377,"褋":7378,"褌":7379,"褍":7380,"褐":7381,"褒":7382,"褓":7383,"褙":7384,"褚":7385,"褥":7386,"褧":7387,"褪":7388,"褶":7389,"褸":7390,"褻":7391,"褾":7392,"襄":7393,"襈":7394,"襑":7395,"襖":7396,"襟":7397,"襤":7398,"襦":7399,"襪":7400,"襬":7401,"襲":7402,"襴":7403,"襸":7404,"西":7405,"要":7406,"覃":7407,"覆":7408,"覇":7409,"覈":7410,"見":7411,"規":7412,"覓":7413,"視":7414,"覚":7415,"覡":7416,"覧":7417,"覩":7418,"親":7419,"覲":7420,"観":7421,"覸":7422,"覹":7423,"覺":7424,"覽":7425,"觀":7426,"见":7427,"观":7428,"规":7429,"视":7430,"览":7431,"觉":7432,"角":7433,"觚":7434,"觜":7435,"解":7436,"觥":7437,"觴":7438,"觸":7439,"言":7440,"訂":7441,"訃":7442,"計":7443,"訊":7444,"訌":7445,"討":7446,"訓":7447,"訔":7448,"訕":7449,"訖":7450,"託":7451,"記":7452,"訛":7453,"訝":7454,"訟":7455,"訢":7456,"訣":7457,"訥":7458,"訪":7459,"設":7460,"許":7461,"訳":7462,"訴":7463,"訶":7464,"診":7465,"註":7466,"証":7467,"訾":7468,"詁":7469,"詎":7470,"詐":7471,"詒":7472,"詔":7473,"評":7474,"詖":7475,"詗":7476,"詛":7477,"詞":7478,"詠":7479,"詡":7480,"詢":7481,"詣":7482,"試":7483,"詧":7484,"詩":7485,"詭":7486,"詮":7487,"詰":7488,"話":7489,"該":7490,"詳":7491,"詵":7492,"詹":7493,"誄":7494,"誅":7495,"誇":7496,"誉":7497,"誌":7498,"認":7499,"誐":7500,"誑":7501,"誓":7502,"誕":7503,"誘":7504,"語":7505,"誠":7506,"誡":7507,"誣":7508,"誤":7509,"誥":7510,"誦":7511,"誧":7512,"誨":7513,"說":7514,"説":7515,"読":7516,"誰":7517,"課":7518,"誴":7519,"誹":7520,"誼":7521,"誾":7522,"調":7523,"諂":7524,"諄":7525,"談":7526,"請":7527,"諍":7528,"諏":7529,"諒":7530,"論":7531,"諛":7532,"諜":7533,"諝":7534,"諡":7535,"諦":7536,"諧":7537,"諫":7538,"諭":7539,"諮":7540,"諰":7541,"諱":7542,"諲":7543,"諴":7544,"諵":7545,"諶":7546,"諷":7547,"諸":7548,"諹":7549,"諺":7550,"諼":7551,"諾":7552,"諿":7553,"謀":7554,"謁":7555,"謂":7556,"謄":7557,"謇":7558,"謊":7559,"謎":7560,"謏":7561,"謐":7562,"謔":7563,"謖":7564,"謗":7565,"謙":7566,"謚":7567,"講":7568,"謝":7569,"謠":7570,"謡":7571,"謨":7572,"謫":7573,"謬":7574,"謳":7575,"謵":7576,"謹":7577,"譁":7578,"證":7579,"譎":7580,"譏":7581,"譓":7582,"譔":7583,"譖":7584,"識":7585,"譙":7586,"譚":7587,"譜":7588,"譞":7589,"譢":7590,"警":7591,"譫":7592,"譬":7593,"譯":7594,"議":7595,"譲":7596,"譴":7597,"護":7598,"譽":7599,"讀":7600,"讃":7601,"變":7602,"讎":7603,"讐":7604,"讒":7605,"讓":7606,"讖":7607,"讚":7608,"讜":7609,"讞":7610,"计":7611,"认":7612,"让":7613,"训":7614,"议":7615,"讯":7616,"记":7617,"讲":7618,"许":7619,"论":7620,"设":7621,"识":7622,"诗":7623,"诚":7624,"诛":7625,"话":7626,"询":7627,"该":7628,"语":7629,"说":7630,"诸":7631,"诺":7632,"调":7633,"谍":7634,"谐":7635,"谕":7636,"谢":7637,"谦":7638,"谨":7639,"谱":7640,"谷":7641,"谿":7642,"豁":7643,"豆":7644,"豈":7645,"豉":7646,"豊":7647,"豌":7648,"豎":7649,"豐":7650,"豔":7651,"豕":7652,"豚":7653,"象":7654,"豢":7655,"豨":7656,"豪":7657,"豫":7658,"豬":7659,"豳":7660,"豸":7661,"豹":7662,"豺":7663,"貂":7664,"貃":7665,"貅":7666,"貉":7667,"貊":7668,"貌":7669,"貓":7670,"貔":7671,"貘":7672,"貙":7673,"貝":7674,"貞":7675,"負":7676,"財":7677,"貢":7678,"貧":7679,"貨":7680,"販":7681,"貪":7682,"貫":7683,"責":7684,"貯":7685,"貰":7686,"貳":7687,"貴":7688,"貶":7689,"買":7690,"貸":7691,"費":7692,"貼":7693,"貽":7694,"貿":7695,"賀":7696,"賁":7697,"賂":7698,"賃":7699,"賄":7700,"資":7701,"賈":7702,"賊":7703,"賑":7704,"賓":7705,"賚":7706,"賛":7707,"賜":7708,"賞":7709,"賠":7710,"賢":7711,"賣":7712,"賤":7713,"賦":7714,"賧":7715,"質":7716,"賭":7717,"賱":7718,"賴":7719,"賸":7720,"賻":7721,"購":7722,"賽":7723,"賾":7724,"贄":7725,"贅":7726,"贇":7727,"贈":7728,"贊":7729,"贍":7730,"贒":7731,"贓":7732,"贖":7733,"贛":7734,"贞":7735,"贡":7736,"财":7737,"责":7738,"贤":7739,"货":7740,"质":7741,"贫":7742,"购":7743,"贴":7744,"贵":7745,"贸":7746,"费":7747,"贺":7748,"资":7749,"赋":7750,"赏":7751,"赐":7752,"赖":7753,"赛":7754,"赜":7755,"赤":7756,"赦":7757,"赧":7758,"赫":7759,"赭":7760,"走":7761,"赳":7762,"赴":7763,"赵":7764,"起":7765,"趂":7766,"超":7767,"越":7768,"趋":7769,"趕":7770,"趙":7771,"趟":7772,"趣":7773,"趨":7774,"足":7775,"趵":7776,"趺":7777,"趾":7778,"跃":7779,"跆":7780,"跋":7781,"跌":7782,"跏":7783,"跑":7784,"距":7785,"跡":7786,"跣":7787,"跨":7788,"跪":7789,"路":7790,"跳":7791,"踊":7792,"踏":7793,"踐":7794,"踢":7795,"踪":7796,"踰":7797,"踵":7798,"踶":7799,"蹂":7800,"蹄":7801,"蹇":7802,"蹈":7803,"蹉":7804,"蹊":7805,"蹋":7806,"蹕":7807,"蹙":7808,"蹟":7809,"蹠":7810,"蹤":7811,"蹯":7812,"蹴":7813,"蹶":7814,"蹻":7815,"躁":7816,"躅":7817,"躇":7818,"躊":7819,"躋":7820,"躍":7821,"躑":7822,"躒":7823,"躪":7824,"身":7825,"躬":7826,"軀":7827,"軆":7828,"車":7829,"軋":7830,"軌":7831,"軍":7832,"軒":7833,"軛":7834,"軟":7835,"転":7836,"軫":7837,"軶":7838,"軸":7839,"軹":7840,"軻":7841,"軼":7842,"軽":7843,"軾":7844,"較":7845,"輅":7846,"輈":7847,"載":7848,"輒":7849,"輓":7850,"輔":7851,"輕":7852,"輗":7853,"輛":7854,"輜":7855,"輝":7856,"輞":7857,"輟":7858,"輦":7859,"輧":7860,"輩":7861,"輪":7862,"輯":7863,"輸":7864,"輹":7865,"輻":7866,"輾":7867,"輿":7868,"轄":7869,"轅":7870,"轆":7871,"轉":7872,"轍":7873,"轎":7874,"轓":7875,"轘":7876,"轟":7877,"轢":7878,"车":7879,"轩":7880,"转":7881,"软":7882,"轰":7883,"轻":7884,"载":7885,"较":7886,"辅":7887,"辆":7888,"辉":7889,"输":7890,"辛":7891,"辜":7892,"辞":7893,"辟":7894,"辣":7895,"辦":7896,"辨":7897,"辭":7898,"辮":7899,"辯":7900,"辰":7901,"辱":7902,"農":7903,"边":7904,"辺":7905,"辻":7906,"込":7907,"辽":7908,"达":7909,"迁":7910,"迂":7911,"迅":7912,"过":7913,"迊":7914,"迎":7915,"运":7916,"近":7917,"返":7918,"还":7919,"这":7920,"进":7921,"连":7922,"迥":7923,"迦":7924,"迪":7925,"迫":7926,"述":7927,"迲":7928,"迴":7929,"迵":7930,"迷":7931,"迹":7932,"追":7933,"迿":7934,"退":7935,"送":7936,"适":7937,"逃":7938,"逅":7939,"逆":7940,"逈":7941,"选":7942,"逋":7943,"逍":7944,"透":7945,"逐":7946,"逑":7947,"递":7948,"途":7949,"逕":7950,"逖":7951,"逗":7952,"這":7953,"通":7954,"逝":7955,"逞":7956,"速":7957,"造":7958,"逡":7959,"逢":7960,"連":7961,"逨":7962,"逮":7963,"逯":7964,"週":7965,"進":7966,"逵":7967,"逸":7968,"逼":7969,"逾":7970,"逿":7971,"遁":7972,"遂":7973,"遅":7974,"遇":7975,"遊":7976,"運":7977,"遍":7978,"過":7979,"遏":7980,"遐":7981,"遑":7982,"道":7983,"達":7984,"違":7985,"遗":7986,"遘":7987,"遙":7988,"遜":7989,"遞":7990,"遠":7991,"遡":7992,"遣":7993,"遥":7994,"適":7995,"遬":7996,"遭":7997,"遮":7998,"遯":7999,"遲":8000,"遴":8001,"遵":8002,"遷":8003,"選":8004,"遺":8005,"遼":8006,"遽":8007,"遾":8008,"避":8009,"邀":8010,"邁":8011,"邂":8012,"邃":8013,"還":8014,"邆":8015,"邇":8016,"邈":8017,"邉":8018,"邊":8019,"邏":8020,"邑":8021,"邓":8022,"邕":8023,"邘":8024,"邙":8025,"邛":8026,"邟":8027,"邠":8028,"邡":8029,"邢":8030,"那":8031,"邦":8032,"邨":8033,"邪":8034,"邯":8035,"邰":8036,"邱":8037,"邳":8038,"邵":8039,"邸":8040,"邹":8041,"邻":8042,"邽":8043,"邾":8044,"郁":8045,"郃":8046,"郄":8047,"郅":8048,"郊":8049,"郎":8050,"郑":8051,"郕":8052,"郖":8053,"郗":8054,"郚":8055,"郝":8056,"郞":8057,"郟":8058,"郡":8059,"郢":8060,"郤":8061,"部":8062,"郪":8063,"郫":8064,"郭":8065,"郯":8066,"郳":8067,"郴":8068,"郵":8069,"郷":8070,"都":8071,"郾":8072,"郿":8073,"鄀":8074,"鄂":8075,"鄃":8076,"鄄":8077,"鄅":8078,"鄆":8079,"鄉":8080,"鄏":8081,"鄒":8082,"鄔":8083,"鄕":8084,"鄖":8085,"鄗":8086,"鄙":8087,"鄜":8088,"鄢":8089,"鄣":8090,"鄧":8091,"鄨":8092,"鄩":8093,"鄫":8094,"鄭":8095,"鄯":8096,"鄰":8097,"鄱":8098,"鄲":8099,"鄳":8100,"鄴":8101,"鄶":8102,"鄻":8103,"酆":8104,"酈":8105,"酉":8106,"酊":8107,"酋":8108,"酌":8109,"配":8110,"酎":8111,"酒":8112,"酢":8113,"酥":8114,"酩":8115,"酪":8116,"酬":8117,"酱":8118,"酲":8119,"酵":8120,"酷":8121,"酸":8122,"酺":8123,"醂":8124,"醇":8125,"醉":8126,"醋":8127,"醍":8128,"醐":8129,"醒":8130,"醜":8131,"醞":8132,"醢":8133,"醪":8134,"醫":8135,"醬":8136,"醮":8137,"醯":8138,"醱":8139,"醴":8140,"醵":8141,"釀":8142,"釁":8143,"采":8144,"釈":8145,"釉":8146,"释":8147,"釋":8148,"里":8149,"重":8150,"野":8151,"量":8152,"釐":8153,"金":8154,"釗":8155,"釘":8156,"釜":8157,"針":8158,"釣":8159,"釧":8160,"釴":8161,"釵":8162,"釷":8163,"鈀":8164,"鈍":8165,"鈐":8166,"鈑":8167,"鈒":8168,"鈔":8169,"鈕":8170,"鈗":8171,"鈞":8172,"鈴":8173,"鈸":8174,"鈺":8175,"鈿":8176,"鉀":8177,"鉄":8178,"鉅":8179,"鉉":8180,"鉏":8181,"鉐":8182,"鉗":8183,"鉛":8184,"鉞":8185,"鉢":8186,"鉤":8187,"鉦":8188,"鉬":8189,"鉱":8190,"鉾":8191,"銀":8192,"銃":8193,"銅":8194,"銊":8195,"銍":8196,"銑":8197,"銓":8198,"銖":8199,"銘":8200,"銙":8201,"銚":8202,"銜":8203,"銭":8204,"銳":8205,"銶":8206,"銷":8207,"銹":8208,"鋌":8209,"鋎":8210,"鋏":8211,"鋒":8212,"鋕":8213,"鋗":8214,"鋤":8215,"鋧":8216,"鋪":8217,"鋭":8218,"鋸":8219,"鋹":8220,"鋺":8221,"鋼":8222,"鋾":8223,"錄":8224,"錐":8225,"錘":8226,"錚":8227,"錞":8228,"錠":8229,"錡":8230,"錢":8231,"錣":8232,"錤":8233,"錥":8234,"錦":8235,"錨":8236,"錫":8237,"錮":8238,"錯":8239,"録":8240,"鍈":8241,"鍊":8242,"鍋":8243,"鍍":8244,"鍔":8245,"鍚":8246,"鍛":8247,"鍝":8248,"鍠":8249,"鍪":8250,"鍮":8251,"鍵":8252,"鍹":8253,"鍼":8254,"鍾":8255,"鎌":8256,"鎏":8257,"鎔":8258,"鎖":8259,"鎗":8260,"鎚":8261,"鎢":8262,"鎣":8263,"鎧":8264,"鎬":8265,"鎭":8266,"鎮":8267,"鎰":8268,"鎲":8269,"鏃":8270,"鏊":8271,"鏐":8272,"鏑":8273,"鏛":8274,"鏜":8275,"鏞":8276,"鏡":8277,"鏢":8278,"鏤":8279,"鏶":8280,"鐎":8281,"鐏":8282,"鐘":8283,"鐙":8284,"鐥":8285,"鐫":8286,"鐵":8287,"鐸":8288,"鑂":8289,"鑄":8290,"鑅":8291,"鑊":8292,"鑑":8293,"鑒":8294,"鑛":8295,"鑣":8296,"鑪":8297,"鑫":8298,"鑰":8299,"鑲":8300,"鑴":8301,"鑼":8302,"鑽":8303,"鑾":8304,"鑿":8305,"针":8306,"钊":8307,"钓":8308,"钗":8309,"钟":8310,"钢":8311,"钮":8312,"钱":8313,"钴":8314,"钺":8315,"铁":8316,"铜":8317,"铢":8318,"银":8319,"销":8320,"锅":8321,"锋":8322,"锟":8323,"锡":8324,"锣":8325,"锦":8326,"镇":8327,"镜":8328,"镶":8329,"長":8330,"长":8331,"門":8332,"閃":8333,"閉":8334,"開":8335,"閎":8336,"閏":8337,"閑":8338,"閒":8339,"間":8340,"閔":8341,"閘":8342,"閜":8343,"閠":8344,"閡":8345,"関":8346,"閣":8347,"閤":8348,"閥":8349,"閦":8350,"閨":8351,"閩":8352,"閫":8353,"閬":8354,"閭":8355,"閱":8356,"閻":8357,"閼":8358,"闇":8359,"闈":8360,"闊":8361,"闌":8362,"闍":8363,"闓":8364,"闔":8365,"闕":8366,"闖":8367,"闘":8368,"關":8369,"闟":8370,"闡":8371,"闢":8372,"闥":8373,"门":8374,"闫":8375,"问":8376,"闲":8377,"间":8378,"闵":8379,"闻":8380,"闼":8381,"阁":8382,"阙":8383,"阜":8384,"队":8385,"阡":8386,"阤":8387,"阪":8388,"阮":8389,"阯":8390,"防":8391,"阳":8392,"阴":8393,"阶":8394,"阻":8395,"阿":8396,"陀":8397,"陁":8398,"陂":8399,"附":8400,"际":8401,"陆":8402,"陈":8403,"陋":8404,"降":8405,"限":8406,"陕":8407,"陘":8408,"陛":8409,"陜":8410,"陝":8411,"陞":8412,"陟":8413,"陡":8414,"院":8415,"陣":8416,"除":8417,"陥":8418,"险":8419,"陪":8420,"陰":8421,"陲":8422,"陳":8423,"陵":8424,"陶":8425,"陷":8426,"陸":8427,"険":8428,"陽":8429,"隄":8430,"隅":8431,"隆":8432,"隈":8433,"隊":8434,"隋":8435,"隍":8436,"階":8437,"随":8438,"隔":8439,"隕":8440,"隗":8441,"隘":8442,"隙":8443,"際":8444,"障":8445,"隞":8446,"隠":8447,"隣":8448,"隤":8449,"隧":8450,"隨":8451,"隩":8452,"險":8453,"隰":8454,"隱":8455,"隴":8456,"隷":8457,"隸":8458,"隻":8459,"隼":8460,"隽":8461,"雀":8462,"雁":8463,"雄":8464,"雅":8465,"集":8466,"雇":8467,"雈":8468,"雉":8469,"雋":8470,"雌":8471,"雍":8472,"雎":8473,"雑":8474,"雒":8475,"雕":8476,"雖":8477,"雘":8478,"雙":8479,"雚":8480,"雛":8481,"雜":8482,"雞":8483,"離":8484,"難":8485,"雨":8486,"雩":8487,"雪":8488,"雯":8489,"雲":8490,"零":8491,"雷":8492,"雹":8493,"電":8494,"雾":8495,"需":8496,"霄":8497,"霆":8498,"震":8499,"霊":8500,"霍":8501,"霏":8502,"霑":8503,"霓":8504,"霔":8505,"霖":8506,"霙":8507,"霜":8508,"霝":8509,"霞":8510,"霦":8511,"霧":8512,"霬":8513,"霮":8514,"霰":8515,"露":8516,"霸":8517,"霹":8518,"霽":8519,"靂":8520,"靄":8521,"靈":8522,"靑":8523,"青":8524,"靖":8525,"静":8526,"靚":8527,"靜":8528,"非":8529,"靠":8530,"靡":8531,"面":8532,"革":8533,"靭":8534,"靳":8535,"靴":8536,"靷":8537,"靺":8538,"鞅":8539,"鞆":8540,"鞋":8541,"鞍":8542,"鞏":8543,"鞘":8544,"鞞":8545,"鞠":8546,"鞨":8547,"鞫":8548,"鞬":8549,"鞭":8550,"鞮":8551,"鞱":8552,"韆":8553,"韋":8554,"韓":8555,"韙":8556,"韜":8557,"韞":8558,"韦":8559,"韩":8560,"音":8561,"韵":8562,"韶":8563,"韻":8564,"響":8565,"頀":8566,"頁":8567,"頂":8568,"頃":8569,"項":8570,"順":8571,"須":8572,"頊":8573,"頌":8574,"頎":8575,"預":8576,"頑":8577,"頒":8578,"頓":8579,"頔":8580,"頗":8581,"領":8582,"頚":8583,"頠":8584,"頡":8585,"頣":8586,"頤":8587,"頫":8588,"頭":8589,"頰":8590,"頴":8591,"頸":8592,"頹":8593,"頻":8594,"頼":8595,"頽":8596,"顆":8597,"題":8598,"額":8599,"顎":8600,"顏":8601,"顒":8602,"顓":8603,"顔":8604,"顕":8605,"顗":8606,"願":8607,"顚":8608,"顛":8609,"類":8610,"顥":8611,"顧":8612,"顫":8613,"顯":8614,"顶":8615,"项":8616,"顺":8617,"须":8618,"顾":8619,"颂":8620,"预":8621,"领":8622,"频":8623,"颖":8624,"题":8625,"颜":8626,"额":8627,"風":8628,"颯":8629,"颱":8630,"颺":8631,"颿":8632,"飄":8633,"飆":8634,"飇":8635,"风":8636,"飛":8637,"飜":8638,"飞":8639,"食":8640,"飡":8641,"飢":8642,"飥":8643,"飫":8644,"飭":8645,"飮":8646,"飯":8647,"飲":8648,"飴":8649,"飼":8650,"飽":8651,"飾":8652,"餃":8653,"餅":8654,"餉":8655,"養":8656,"餌":8657,"餐":8658,"餓":8659,"餘":8660,"餞":8661,"餠":8662,"館":8663,"餮":8664,"餺":8665,"饀":8666,"饁":8667,"饅":8668,"饉":8669,"饋":8670,"饌":8671,"饍":8672,"饑":8673,"饒":8674,"饔":8675,"饕":8676,"饗":8677,"饭":8678,"饮":8679,"饰":8680,"饺":8681,"饼":8682,"馀":8683,"馆":8684,"馍":8685,"首":8686,"香":8687,"馝":8688,"馣":8689,"馥":8690,"馧":8691,"馨":8692,"馪":8693,"馬":8694,"馭":8695,"馮":8696,"馱":8697,"馳":8698,"馴":8699,"馹":8700,"駁":8701,"駄":8702,"駅":8703,"駆":8704,"駐":8705,"駑":8706,"駒":8707,"駕":8708,"駘":8709,"駙":8710,"駛":8711,"駝":8712,"駟":8713,"駢":8714,"駥":8715,"駭":8716,"駰":8717,"駱":8718,"駹":8719,"駿":8720,"騁":8721,"騄":8722,"騅":8723,"騈":8724,"騎":8725,"騏":8726,"騑":8727,"騒":8728,"験":8729,"騘":8730,"騙":8731,"騟":8732,"騨":8733,"騫":8734,"騭":8735,"騮":8736,"騰":8737,"騵":8738,"騶":8739,"騷":8740,"驀":8741,"驃":8742,"驄":8743,"驅":8744,"驊":8745,"驌":8746,"驍":8747,"驕":8748,"驗":8749,"驚":8750,"驛":8751,"驟":8752,"驢":8753,"驤":8754,"驥":8755,"驩":8756,"驪":8757,"马":8758,"骄":8759,"骏":8760,"骐":8761,"骘":8762,"骜":8763,"骝":8764,"骨":8765,"骸":8766,"骻":8767,"髄":8768,"髓":8769,"體":8770,"髖":8771,"高":8772,"髙":8773,"髡":8774,"髥":8775,"髦":8776,"髪":8777,"髮":8778,"髷":8779,"髸":8780,"髻":8781,"鬘":8782,"鬚":8783,"鬥":8784,"鬧":8785,"鬨":8786,"鬪":8787,"鬬":8788,"鬱":8789,"鬷":8790,"鬼":8791,"魁":8792,"魂":8793,"魃":8794,"魄":8795,"魅":8796,"魋":8797,"魍":8798,"魎":8799,"魏":8800,"魔":8801,"魚":8802,"魟":8803,"魯":8804,"魴":8805,"鮈":8806,"鮎":8807,"鮑":8808,"鮒":8809,"鮞":8810,"鮟":8811,"鮫":8812,"鮮":8813,"鯀":8814,"鯉":8815,"鯊":8816,"鯗":8817,"鯡":8818,"鯤":8819,"鯨":8820,"鰂":8821,"鰈":8822,"鰍":8823,"鰐":8824,"鰒":8825,"鰓":8826,"鰕":8827,"鰥":8828,"鰭":8829,"鰱":8830,"鰲":8831,"鰻":8832,"鱇":8833,"鱒":8834,"鱗":8835,"鱟":8836,"鱼":8837,"鲁":8838,"鲍":8839,"鲜":8840,"鲨":8841,"鳥":8842,"鳧":8843,"鳩":8844,"鳳":8845,"鳴":8846,"鳶":8847,"鴆":8848,"鴇":8849,"鴈":8850,"鴉":8851,"鴎":8852,"鴛":8853,"鴦":8854,"鴨":8855,"鴻":8856,"鴿":8857,"鵄":8858,"鵑":8859,"鵓":8860,"鵜":8861,"鵝":8862,"鵞":8863,"鵠":8864,"鵡":8865,"鵬":8866,"鵰":8867,"鵲":8868,"鶉":8869,"鶏":8870,"鶯":8871,"鶴":8872,"鶻":8873,"鶿":8874,"鷂":8875,"鷄":8876,"鷗":8877,"鷦":8878,"鷫":8879,"鷯":8880,"鷰":8881,"鷲":8882,"鷳":8883,"鷹":8884,"鷺":8885,"鸕":8886,"鸚":8887,"鸞":8888,"鸠":8889,"鸡":8890,"鸣":8891,"鸭":8892,"鸿":8893,"鹄":8894,"鹏":8895,"鹤":8896,"鹰":8897,"鹵":8898,"鹹":8899,"鹽":8900,"鹿":8901,"麁":8902,"麋":8903,"麏":8904,"麒":8905,"麓":8906,"麗":8907,"麝":8908,"麞":8909,"麟":8910,"麤":8911,"麥":8912,"麦":8913,"麩":8914,"麯":8915,"麴":8916,"麵":8917,"麹":8918,"麺":8919,"麻":8920,"麼":8921,"麾":8922,"麿":8923,"黃":8924,"黄":8925,"黌":8926,"黍":8927,"黎":8928,"黏":8929,"黑":8930,"黒":8931,"黔":8932,"默":8933,"黙":8934,"黛":8935,"黜":8936,"黝":8937,"點":8938,"黟":8939,"黠":8940,"黥":8941,"黨":8942,"黯":8943,"黴":8944,"黶":8945,"黽":8946,"鼂":8947,"鼇":8948,"鼈":8949,"鼎":8950,"鼐":8951,"鼓":8952,"鼠":8953,"鼬":8954,"鼻":8955,"齊":8956,"齋":8957,"齎":8958,"齐":8959,"齒":8960,"齕":8961,"齟":8962,"齡":8963,"齧":8964,"齪":8965,"齮":8966,"齿":8967,"龄":8968,"龍":8969,"龐":8970,"龔":8971,"龕":8972,"龙":8973,"龚":8974,"龜":8975,"ꕜ":8976,"Ꝩ":8977,"ꟾ":8978,"ꡔ":8979,"ꡕ":8980,"가":8981,"각":8982,"갂":8983,"갃":8984,"간":8985,"갅":8986,"갆":8987,"갇":8988,"갈":8989,"갉":8990,"갊":8991,"갋":8992,"갌":8993,"갏":8994,"감":8995,"갑":8996,"값":8997,"갓":8998,"갔":8999,"강":9000,"갖":9001,"갗":9002,"같":9003,"갚":9004,"갛":9005,"개":9006,"객":9007,"갠":9008,"갣":9009,"갤":9010,"갬":9011,"갭":9012,"갯":9013,"갰":9014,"갱":9015,"갲":9016,"갶":9017,"갸":9018,"갹":9019,"갻":9020,"갼":9021,"갽":9022,"갿":9023,"걀":9024,"걋":9025,"걍":9026,"걔":9027,"걖":9028,"걘":9029,"걜":9030,"거":9031,"걱":9032,"걲":9033,"건":9034,"걷":9035,"걸":9036,"걹":9037,"걺":9038,"검":9039,"겁":9040,"겂":9041,"것":9042,"겄":9043,"겅":9044,"겆":9045,"겉":9046,"겊":9047,"겋":9048,"게":9049,"겍":9050,"겐":9051,"겓":9052,"겔":9053,"겙":9054,"겚":9055,"겜":9056,"겝":9057,"겞":9058,"겟":9059,"겠":9060,"겡":9061,"겢":9062,"겣":9063,"겤":9064,"겧":9065,"겨":9066,"격":9067,"겪":9068,"겫":9069,"견":9070,"겭":9071,"겮":9072,"겯":9073,"결":9074,"겱":9075,"겲":9076,"겳":9077,"겴":9078,"겵":9079,"겷":9080,"겸":9081,"겹":9082,"겻":9083,"겼":9084,"경":9085,"겾":9086,"겿":9087,"곀":9088,"곁":9089,"곂":9090,"곃":9091,"계":9092,"곈":9093,"곌":9094,"곒":9095,"곔":9096,"곕":9097,"곗":9098,"곘":9099,"곙":9100,"곛":9101,"고":9102,"곡":9103,"곤":9104,"곧":9105,"골":9106,"곩":9107,"곪":9108,"곫":9109,"곬":9110,"곯":9111,"곰":9112,"곱":9113,"곳":9114,"공":9115,"곶":9116,"곷":9117,"곹":9118,"곺":9119,"과":9120,"곽":9121,"곾":9122,"관":9123,"괂":9124,"괃":9125,"괄":9126,"괆":9127,"괊":9128,"괌":9129,"괍":9130,"괏":9131,"괐":9132,"광":9133,"괒":9134,"괔":9135,"괕":9136,"괗":9137,"괘":9138,"괙":9139,"괚":9140,"괜":9141,"괞":9142,"괠":9143,"괩":9144,"괫":9145,"괬":9146,"괭":9147,"괴":9148,"괵":9149,"괶":9150,"괸":9151,"괼":9152,"굀":9153,"굄":9154,"굅":9155,"굇":9156,"굉":9157,"굊":9158,"굏":9159,"교":9160,"굑":9161,"굔":9162,"굘":9163,"굚":9164,"굛":9165,"굡":9166,"굣":9167,"굥":9168,"굦":9169,"구":9170,"국":9171,"굮":9172,"군":9173,"굳":9174,"굴":9175,"굵":9176,"굶":9177,"굷":9178,"굻":9179,"굼":9180,"굽":9181,"굿":9182,"궁":9183,"궂":9184,"궃":9185,"궅":9186,"궈":9187,"궉":9188,"궊":9189,"권":9190,"궎":9191,"궐":9192,"궙":9193,"궛":9194,"궜":9195,"궝":9196,"궞":9197,"궡":9198,"궢":9199,"궤":9200,"궥":9201,"궧":9202,"궨":9203,"궫":9204,"궬":9205,"궮":9206,"궯":9207,"궱":9208,"궵":9209,"궷":9210,"궼":9211,"귀":9212,"귁":9213,"귄":9214,"귈":9215,"귐":9216,"귑":9217,"귓":9218,"귕":9219,"규":9220,"귝":9221,"균":9222,"귡":9223,"귤":9224,"귪":9225,"귬":9226,"귭":9227,"귯":9228,"그":9229,"극":9230,"귺":9231,"귻":9232,"근":9233,"귽":9234,"귾":9235,"귿":9236,"글":9237,"긁":9238,"긂":9239,"긇":9240,"금":9241,"급":9242,"긊":9243,"긋":9244,"긌":9245,"긍":9246,"긎":9247,"긏":9248,"긐":9249,"긑":9250,"긒":9251,"긔":9252,"긘":9253,"긛":9254,"긜":9255,"긟":9256,"긠":9257,"긣":9258,"긤":9259,"긥":9260,"긧":9261,"긩":9262,"긬":9263,"기":9264,"긱":9265,"긲":9266,"긴":9267,"긷":9268,"길":9269,"긹":9270,"긺":9271,"긼":9272,"긾":9273,"긿":9274,"김":9275,"깁":9276,"깂":9277,"깃":9278,"깄":9279,"깅":9280,"깆":9281,"깇":9282,"깉":9283,"깊":9284,"깋":9285,"까":9286,"깍":9287,"깎":9288,"깐":9289,"깔":9290,"깖":9291,"깜":9292,"깝":9293,"깟":9294,"깠":9295,"깡":9296,"깢":9297,"깣":9298,"깥":9299,"깧":9300,"깨":9301,"깩":9302,"깬":9303,"깯":9304,"깰":9305,"깳":9306,"깵":9307,"깶":9308,"깸":9309,"깹":9310,"깺":9311,"깻":9312,"깼":9313,"깽":9314,"깿":9315,"꺄":9316,"꺅":9317,"꺆":9318,"꺉":9319,"꺊":9320,"꺋":9321,"꺌":9322,"꺍":9323,"꺎":9324,"꺏":9325,"꺑":9326,"꺒":9327,"꺓":9328,"꺔":9329,"꺕":9330,"꺖":9331,"꺗":9332,"꺘":9333,"꺙":9334,"꺚":9335,"꺛":9336,"꺜":9337,"꺝":9338,"꺞":9339,"꺟":9340,"꺠":9341,"꺡":9342,"꺢":9343,"꺥":9344,"꺦":9345,"꺩":9346,"꺭":9347,"꺲":9348,"꺳":9349,"꺸":9350,"꺼":9351,"꺽":9352,"꺾":9353,"껀":9354,"껃":9355,"껄":9356,"껊":9357,"껌":9358,"껍":9359,"껏":9360,"껐":9361,"껑":9362,"껕":9363,"께":9364,"껙":9365,"껜":9366,"껞":9367,"껠":9368,"껨":9369,"껩":9370,"껫":9371,"껬":9372,"껭":9373,"껴":9374,"껵":9375,"껶":9376,"껸":9377,"껼":9378,"꼇":9379,"꼈":9380,"꼉":9381,"꼍":9382,"꼐":9383,"꼤":9384,"꼬":9385,"꼭":9386,"꼰":9387,"꼲":9388,"꼳":9389,"꼴":9390,"꼼":9391,"꼽":9392,"꼿":9393,"꽁":9394,"꽂":9395,"꽃":9396,"꽅":9397,"꽈":9398,"꽉":9399,"꽊":9400,"꽌":9401,"꽐":9402,"꽛":9403,"꽜":9404,"꽝":9405,"꽤":9406,"꽥":9407,"꽨":9408,"꽷":9409,"꽹":9410,"꾀":9411,"꾄":9412,"꾈":9413,"꾐":9414,"꾑":9415,"꾔":9416,"꾕":9417,"꾜":9418,"꾩":9419,"꾳":9420,"꾸":9421,"꾹":9422,"꾼":9423,"꾾":9424,"꾿":9425,"꿀":9426,"꿇":9427,"꿈":9428,"꿉":9429,"꿋":9430,"꿌":9431,"꿍":9432,"꿎":9433,"꿏":9434,"꿑":9435,"꿔":9436,"꿕":9437,"꿘":9438,"꿜":9439,"꿧":9440,"꿨":9441,"꿩":9442,"꿮":9443,"꿰":9444,"꿱":9445,"꿴":9446,"꿸":9447,"뀀":9448,"뀁":9449,"뀄":9450,"뀅":9451,"뀉":9452,"뀌":9453,"뀐":9454,"뀔":9455,"뀜":9456,"뀝":9457,"뀟":9458,"뀠":9459,"뀡":9460,"뀨":9461,"뀰":9462,"뀸":9463,"뀼":9464,"끁":9465,"끄":9466,"끅":9467,"끈":9468,"끊":9469,"끋":9470,"끌":9471,"끍":9472,"끎":9473,"끓":9474,"끔":9475,"끕":9476,"끗":9477,"끙":9478,"끛":9479,"끝":9480,"끠":9481,"끼":9482,"끽":9483,"끾":9484,"낀":9485,"낃":9486,"낄":9487,"낋":9488,"낌":9489,"낍":9490,"낏":9491,"낐":9492,"낑":9493,"낖":9494,"나":9495,"낙":9496,"낚":9497,"낛":9498,"난":9499,"낟":9500,"날":9501,"낡":9502,"낢":9503,"낣":9504,"낤":9505,"남":9506,"납":9507,"낫":9508,"났":9509,"낭":9510,"낮":9511,"낯":9512,"낰":9513,"낱":9514,"낲":9515,"낳":9516,"내":9517,"낵":9518,"낸":9519,"낻":9520,"낼":9521,"낽":9522,"냄":9523,"냅":9524,"냇":9525,"냈":9526,"냉":9527,"냊":9528,"냎":9529,"냏":9530,"냐":9531,"냑":9532,"냔":9533,"냕":9534,"냘":9535,"냠":9536,"냡":9537,"냣":9538,"냤":9539,"냥":9540,"냬":9541,"냿":9542,"넀":9543,"넁":9544,"너":9545,"넉":9546,"넋":9547,"넌":9548,"넏":9549,"널":9550,"넑":9551,"넒":9552,"넓":9553,"넔":9554,"넖":9555,"넗":9556,"넘":9557,"넙":9558,"넚":9559,"넛":9560,"넜":9561,"넝":9562,"넞":9563,"넡":9564,"넢":9565,"넣":9566,"네":9567,"넥":9568,"넨":9569,"넫":9570,"넬":9571,"넴":9572,"넵":9573,"넷":9574,"넸":9575,"넹":9576,"넺":9577,"넻":9578,"넼":9579,"넽":9580,"녀":9581,"녁":9582,"녂":9583,"년":9584,"녇":9585,"녈":9586,"녋":9587,"념":9588,"녑":9589,"녓":9590,"녔":9591,"녕":9592,"녘":9593,"녙":9594,"녜":9595,"녝":9596,"녞":9597,"녟":9598,"녠":9599,"녣":9600,"녤":9601,"녬":9602,"녯":9603,"노":9604,"녹":9605,"녺":9606,"녻":9607,"논":9608,"녾":9609,"녿":9610,"놀":9611,"놁":9612,"놂":9613,"놃":9614,"놈":9615,"놉":9616,"놋":9617,"농":9618,"놏":9619,"높":9620,"놓":9621,"놔":9622,"놘":9623,"놜":9624,"놧":9625,"놨":9626,"놰":9627,"놻":9628,"뇁":9629,"뇄":9630,"뇆":9631,"뇊":9632,"뇋":9633,"뇌":9634,"뇍":9635,"뇐":9636,"뇔":9637,"뇗":9638,"뇜":9639,"뇝":9640,"뇟":9641,"뇡":9642,"뇦":9643,"뇨":9644,"뇩":9645,"뇬":9646,"뇰":9647,"뇸":9648,"뇹":9649,"뇻":9650,"뇽":9651,"눀":9652,"눂":9653,"누":9654,"눅":9655,"눈":9656,"눋":9657,"눌":9658,"눍":9659,"눔":9660,"눕":9661,"눗":9662,"눙":9663,"눚":9664,"눝":9665,"눞":9666,"눟":9667,"눠":9668,"눤":9669,"눨":9670,"눮":9671,"눴":9672,"눵":9673,"눼":9674,"뉘":9675,"뉙":9676,"뉜":9677,"뉟":9678,"뉠":9679,"뉨":9680,"뉩":9681,"뉫":9682,"뉭":9683,"뉴":9684,"뉵":9685,"뉸":9686,"뉻":9687,"뉼":9688,"늄":9689,"늅":9690,"늇":9691,"늉":9692,"늏":9693,"느":9694,"늑":9695,"늒":9696,"늓":9697,"는":9698,"늕":9699,"늖":9700,"늗":9701,"늘":9702,"늙":9703,"늚":9704,"늛":9705,"늜":9706,"늝":9707,"늟":9708,"늠":9709,"늡":9710,"늢":9711,"늣":9712,"늤":9713,"능":9714,"늦":9715,"늧":9716,"늩":9717,"늪":9718,"늫":9719,"늬":9720,"늮":9721,"늯":9722,"늰":9723,"늱":9724,"늲":9725,"늳":9726,"늴":9727,"늵":9728,"늶":9729,"늸":9730,"늹":9731,"늽":9732,"늿":9733,"닁":9734,"니":9735,"닉":9736,"닊":9737,"닌":9738,"닏":9739,"닐":9740,"닑":9741,"닒":9742,"님":9743,"닙":9744,"닛":9745,"닜":9746,"닝":9747,"닞":9748,"닟":9749,"닠":9750,"닡":9751,"닢":9752,"닣":9753,"다":9754,"닥":9755,"닦":9756,"닧":9757,"단":9758,"닫":9759,"달":9760,"닭":9761,"닮":9762,"닯":9763,"닲":9764,"닳":9765,"담":9766,"답":9767,"닷":9768,"닸":9769,"당":9770,"닺":9771,"닻":9772,"닽":9773,"닾":9774,"닿":9775,"대":9776,"댁":9777,"댄":9778,"댇":9779,"댈":9780,"댉":9781,"댏":9782,"댐":9783,"댑":9784,"댓":9785,"댔":9786,"댕":9787,"댖":9788,"댗":9789,"댚":9790,"댛":9791,"댜":9792,"댠":9793,"댭":9794,"댱":9795,"댸":9796,"댾":9797,"댿":9798,"덀":9799,"덂":9800,"덅":9801,"덆":9802,"덎":9803,"덐":9804,"덒":9805,"더":9806,"덕":9807,"덖":9808,"덗":9809,"던":9810,"덙":9811,"덛":9812,"덜":9813,"덞":9814,"덟":9815,"덠":9816,"덤":9817,"덥":9818,"덦":9819,"덧":9820,"덨":9821,"덩":9822,"덪":9823,"덫":9824,"덭":9825,"덮":9826,"덯":9827,"데":9828,"덱":9829,"덴":9830,"덷":9831,"델":9832,"뎀":9833,"뎁":9834,"뎃":9835,"뎄":9836,"뎅":9837,"뎈":9838,"뎊":9839,"뎌":9840,"뎍":9841,"뎎":9842,"뎏":9843,"뎐":9844,"뎑":9845,"뎓":9846,"뎔":9847,"뎖":9848,"뎘":9849,"뎛":9850,"뎜":9851,"뎝":9852,"뎟":9853,"뎠":9854,"뎡":9855,"뎢":9856,"뎤":9857,"뎥":9858,"뎧":9859,"뎨":9860,"뎩":9861,"뎬":9862,"뎮":9863,"뎴":9864,"뎻":9865,"도":9866,"독":9867,"돆":9868,"돈":9869,"돋":9870,"돌":9871,"돍":9872,"돎":9873,"돐":9874,"돔":9875,"돕":9876,"돗":9877,"돘":9878,"동":9879,"돚":9880,"돛":9881,"돝":9882,"돞":9883,"돟":9884,"돠":9885,"돣":9886,"돤":9887,"돥":9888,"돨":9889,"돮":9890,"돰":9891,"돱":9892,"돲":9893,"돴":9894,"돼":9895,"돽":9896,"돿":9897,"됀":9898,"됃":9899,"됄":9900,"됌":9901,"됍":9902,"됏":9903,"됐":9904,"됖":9905,"되":9906,"됙":9907,"된":9908,"됟":9909,"될":9910,"됢":9911,"됧":9912,"됨":9913,"됩":9914,"됫":9915,"됬":9916,"됭":9917,"됮":9918,"됴":9919,"됸":9920,"둅":9921,"둇":9922,"둉":9923,"둏":9924,"두":9925,"둑":9926,"둔":9927,"둗":9928,"둘":9929,"둚":9930,"둟":9931,"둠":9932,"둡":9933,"둣":9934,"둥":9935,"둧":9936,"둨":9937,"둩":9938,"둪":9939,"둫":9940,"둬":9941,"둮":9942,"둯":9943,"둰":9944,"둳":9945,"둴":9946,"둵":9947,"둹":9948,"둻":9949,"둼":9950,"둿":9951,"뒀":9952,"뒁":9953,"뒃":9954,"뒄":9955,"뒇":9956,"뒈":9957,"뒋":9958,"뒌":9959,"뒍":9960,"뒎":9961,"뒔":9962,"뒖":9963,"뒚":9964,"뒛":9965,"뒝":9966,"뒤":9967,"뒥":9968,"뒦":9969,"뒨":9970,"뒫":9971,"뒬":9972,"뒴":9973,"뒵":9974,"뒷":9975,"뒸":9976,"뒹":9977,"뒺":9978,"듀":9979,"듁":9980,"듃":9981,"듄":9982,"듈":9983,"듏":9984,"듐":9985,"듑":9986,"듓":9987,"듕":9988,"드":9989,"득":9990,"든":9991,"듣":9992,"들":9993,"듥":9994,"듦":9995,"듧":9996,"듫":9997,"듬":9998,"듭":9999,"듯":10000,"등":10001,"듶":10002,"듷":10003,"듸":10004,"듻":10005,"듼":10006,"듿":10007,"딀":10008,"딋":10009,"딍":10010,"딏":10011,"디":10012,"딕":10013,"딘":10014,"딛":10015,"딜":10016,"딝":10017,"딞":10018,"딢":10019,"딤":10020,"딥":10021,"딧":10022,"딨":10023,"딩":10024,"딪":10025,"딫":10026,"딬":10027,"딮":10028,"딯":10029,"따":10030,"딱":10031,"딲":10032,"딴":10033,"딷":10034,"딸":10035,"딹":10036,"딿":10037,"땀":10038,"땁":10039,"땃":10040,"땄":10041,"땅":10042,"땇":10043,"땈":10044,"땉":10045,"땋":10046,"때":10047,"땍":10048,"땎":10049,"땐":10050,"땓":10051,"땔":10052,"땕":10053,"땙":10054,"땚":10055,"땜":10056,"땝":10057,"땞":10058,"땟":10059,"땠":10060,"땡":10061,"땣":10062,"땤":10063,"땥":10064,"땧":10065,"땨":10066,"땵":10067,"떄":10068,"떈":10069,"떋":10070,"떏":10071,"떓":10072,"떙":10073,"떛":10074,"떟":10075,"떠":10076,"떡":10077,"떢":10078,"떤":10079,"떧":10080,"떨":10081,"떪":10082,"떫":10083,"떬":10084,"떮":10085,"떰":10086,"떱":10087,"떳":10088,"떴":10089,"떵":10090,"떻":10091,"떼":10092,"떽":10093,"뗀":10094,"뗄":10095,"뗌":10096,"뗍":10097,"뗏":10098,"뗐":10099,"뗑":10100,"뗘":10101,"뗜":10102,"뗬":10103,"뗳":10104,"뗴":10105,"뗸":10106,"똇":10107,"똉":10108,"또":10109,"똑":10110,"똔":10111,"똘":10112,"똞":10113,"똟":10114,"똠":10115,"똡":10116,"똢":10117,"똣":10118,"똥":10119,"똧":10120,"똫":10121,"똬":10122,"똭":10123,"똰":10124,"똲":10125,"똴":10126,"똻":10127,"똿":10128,"뙇":10129,"뙈":10130,"뙉":10131,"뙑":10132,"뙜":10133,"뙤":10134,"뙨":10135,"뙬":10136,"뙹":10137,"뚜":10138,"뚝":10139,"뚠":10140,"뚡":10141,"뚢":10142,"뚣":10143,"뚤":10144,"뚧":10145,"뚪":10146,"뚫":10147,"뚬":10148,"뚭":10149,"뚯":10150,"뚱":10151,"뚷":10152,"뚸":10153,"뚹":10154,"뚺":10155,"뛃":10156,"뛔":10157,"뛞":10158,"뛟":10159,"뛦":10160,"뛬":10161,"뛰":10162,"뛱":10163,"뛳":10164,"뛴":10165,"뛵":10166,"뛸":10167,"뜀":10168,"뜁":10169,"뜅":10170,"뜌":10171,"뜜":10172,"뜞":10173,"뜟":10174,"뜦":10175,"뜨":10176,"뜩":10177,"뜬":10178,"뜯":10179,"뜰":10180,"뜳":10181,"뜵":10182,"뜷":10183,"뜸":10184,"뜹":10185,"뜻":10186,"뜼":10187,"뜽":10188,"뜾":10189,"띁":10190,"띃":10191,"띄":10192,"띅":10193,"띇":10194,"띈":10195,"띉":10196,"띌":10197,"띔":10198,"띕":10199,"띙":10200,"띠":10201,"띡":10202,"띢":10203,"띤":10204,"띧":10205,"띨":10206,"띮":10207,"띰":10208,"띱":10209,"띳":10210,"띴":10211,"띵":10212,"라":10213,"락":10214,"란":10215,"랁":10216,"랂":10217,"랃":10218,"랄":10219,"랅":10220,"랆":10221,"랋":10222,"람":10223,"랍":10224,"랏":10225,"랐":10226,"랑":10227,"랒":10228,"랕":10229,"랖":10230,"랗":10231,"래":10232,"랙":10233,"랜":10234,"랟":10235,"랠":10236,"램":10237,"랩":10238,"랫":10239,"랬":10240,"랭":10241,"랱":10242,"랲":10243,"랳":10244,"랴":10245,"략":10246,"랸":10247,"랼":10248,"럂":10249,"럃":10250,"럄":10251,"럅":10252,"럆":10253,"럇":10254,"럈":10255,"량":10256,"럊":10257,"럌":10258,"럏":10259,"럐":10260,"럑":10261,"럒":10262,"럓":10263,"럔":10264,"럕":10265,"럖":10266,"럗":10267,"럘":10268,"럙":10269,"럛":10270,"럝":10271,"럞":10272,"럟":10273,"럢":10274,"럤":10275,"럦":10276,"러":10277,"럭":10278,"럮":10279,"럯":10280,"런":10281,"럱":10282,"럲":10283,"럳":10284,"럴":10285,"럶":10286,"럷":10287,"럸":10288,"럻":10289,"럼":10290,"럽":10291,"럾":10292,"럿":10293,"렀":10294,"렁":10295,"렂":10296,"렇":10297,"레":10298,"렉":10299,"렊":10300,"렌":10301,"렍":10302,"렏":10303,"렐":10304,"렘":10305,"렙":10306,"렛":10307,"렜":10308,"렝":10309,"렟":10310,"렡":10311,"렣":10312,"려":10313,"력":10314,"렧":10315,"련":10316,"렫":10317,"렬":10318,"렭":10319,"렳":10320,"렴":10321,"렵":10322,"렶":10323,"렷":10324,"렸":10325,"령":10326,"렺":10327,"렿":10328,"례":10329,"롄":10330,"롈":10331,"롊":10332,"롏":10333,"롐":10334,"롑":10335,"롓":10336,"롕":10337,"로":10338,"록":10339,"롟":10340,"론":10341,"롣":10342,"롤":10343,"롥":10344,"롩":10345,"롬":10346,"롭":10347,"롯":10348,"롱":10349,"롴":10350,"롵":10351,"롷":10352,"롸":10353,"롹":10354,"롼":10355,"뢀":10356,"뢋":10357,"뢍":10358,"뢔":10359,"뢠":10360,"뢡":10361,"뢢":10362,"뢤":10363,"뢦":10364,"뢨":10365,"뢩":10366,"뢬":10367,"뢭":10368,"뢮":10369,"뢰":10370,"뢱":10371,"뢲":10372,"뢳":10373,"뢴":10374,"뢵":10375,"뢶":10376,"뢷":10377,"뢸":10378,"뢹":10379,"뢽":10380,"룀":10381,"룁":10382,"룃":10383,"룄":10384,"룅":10385,"료":10386,"룍":10387,"룏":10388,"룐":10389,"룑":10390,"룔":10391,"룜":10392,"룝":10393,"룟":10394,"룡":10395,"루":10396,"룩":10397,"룪":10398,"룫":10399,"룬":10400,"룯":10401,"룰":10402,"룴":10403,"룸":10404,"룹":10405,"룻":10406,"룽":10407,"뤀":10408,"뤃":10409,"뤄":10410,"뤅":10411,"뤈":10412,"뤌":10413,"뤗":10414,"뤘":10415,"뤙":10416,"뤠":10417,"뤤":10418,"뤼":10419,"뤽":10420,"뤿":10421,"륀":10422,"륄":10423,"륌":10424,"륍":10425,"륏":10426,"륑":10427,"류":10428,"륙":10429,"륚":10430,"륜":10431,"률":10432,"륨":10433,"륩":10434,"륫":10435,"륭":10436,"륱":10437,"륳":10438,"르":10439,"륵":10440,"른":10441,"륻":10442,"를":10443,"륾":10444,"륿":10445,"릀":10446,"릂":10447,"릃":10448,"름":10449,"릅":10450,"릇":10451,"릉":10452,"릊":10453,"릋":10454,"릌":10455,"릍":10456,"릎":10457,"릏":10458,"릐":10459,"릑":10460,"릔":10461,"릕":10462,"릗":10463,"릘":10464,"릙":10465,"릚":10466,"릛":10467,"릜":10468,"릝":10469,"릟":10470,"릠":10471,"릣":10472,"릧":10473,"릨":10474,"릫":10475,"리":10476,"릭":10477,"릮":10478,"린":10479,"릲":10480,"릳":10481,"릴":10482,"릵":10483,"릸":10484,"릹":10485,"림":10486,"립":10487,"릿":10488,"맀":10489,"링":10490,"맂":10491,"맄":10492,"맅":10493,"맆":10494,"맇":10495,"마":10496,"막":10497,"맊":10498,"맋":10499,"만":10500,"맍":10501,"많":10502,"맏":10503,"말":10504,"맑":10505,"맒":10506,"맗":10507,"맘":10508,"맙":10509,"맛":10510,"맜":10511,"망":10512,"맞":10513,"맟":10514,"맠":10515,"맡":10516,"맣":10517,"매":10518,"맥":10519,"맨":10520,"맬":10521,"맰":10522,"맴":10523,"맵":10524,"맷":10525,"맸":10526,"맹":10527,"맺":10528,"맻":10529,"맽":10530,"먀":10531,"먁":10532,"먄":10533,"먈":10534,"먐":10535,"먓":10536,"먕":10537,"먖":10538,"먤":10539,"먥":10540,"먦":10541,"먧":10542,"먨":10543,"먬":10544,"먯":10545,"먰":10546,"먴":10547,"머":10548,"먹":10549,"먻":10550,"먼":10551,"먾":10552,"먿":10553,"멀":10554,"멁":10555,"멂":10556,"멅":10557,"멇":10558,"멈":10559,"멉":10560,"멊":10561,"멋":10562,"멌":10563,"멍":10564,"멎":10565,"멏":10566,"멐":10567,"멒":10568,"멓":10569,"메":10570,"멕":10571,"멘":10572,"멛":10573,"멜":10574,"멤":10575,"멥":10576,"멧":10577,"멨":10578,"멩":10579,"멪":10580,"멫":10581,"며":10582,"멱":10583,"멲":10584,"멳":10585,"면":10586,"멷":10587,"멸":10588,"멺":10589,"멿":10590,"몀":10591,"몁":10592,"몃":10593,"몄":10594,"명":10595,"몆":10596,"몇":10597,"몈":10598,"몊":10599,"몌":10600,"몎":10601,"몏":10602,"몐":10603,"몓":10604,"몡":10605,"몣":10606,"모":10607,"목":10608,"몫":10609,"몬":10610,"몯":10611,"몰":10612,"몱":10613,"몲":10614,"몴":10615,"몷":10616,"몸":10617,"몹":10618,"못":10619,"몼":10620,"몽":10621,"몾":10622,"몿":10623,"뫁":10624,"뫃":10625,"뫄":10626,"뫆":10627,"뫈":10628,"뫌":10629,"뫏":10630,"뫑":10631,"뫒":10632,"뫓":10633,"뫔":10634,"뫕":10635,"뫗":10636,"뫘":10637,"뫙":10638,"뫚":10639,"뫜":10640,"뫝":10641,"뫞":10642,"뫟":10643,"뫠":10644,"뫡":10645,"뫧":10646,"뫴":10647,"뫼":10648,"뫽":10649,"묀":10650,"묃":10651,"묄":10652,"묌":10653,"묍":10654,"묏":10655,"묐":10656,"묑":10657,"묘":10658,"묙":10659,"묜":10660,"묠":10661,"묨":10662,"묩":10663,"묫":10664,"묬":10665,"묭":10666,"무":10667,"묵":10668,"묶":10669,"묷":10670,"문":10671,"묹":10672,"묺":10673,"묻":10674,"물":10675,"묽":10676,"묾":10677,"뭀":10678,"뭄":10679,"뭅":10680,"뭇":10681,"뭉":10682,"뭊":10683,"뭋":10684,"뭍":10685,"뭎":10686,"뭏":10687,"뭐":10688,"뭑":10689,"뭓":10690,"뭔":10691,"뭗":10692,"뭘":10693,"뭙":10694,"뭝":10695,"뭠":10696,"뭡":10697,"뭣":10698,"뭤":10699,"뭥":10700,"뭨":10701,"뭩":10702,"뭪":10703,"뭬":10704,"뭲":10705,"뭶":10706,"뭺":10707,"뭽":10708,"뮄":10709,"뮈":10710,"뮊":10711,"뮌":10712,"뮐":10713,"뮕":10714,"뮙":10715,"뮛":10716,"뮝":10717,"뮤":10718,"뮨":10719,"뮬":10720,"뮭":10721,"뮴":10722,"뮷":10723,"뮸":10724,"뮹":10725,"뮺":10726,"므":10727,"믁":10728,"믄":10729,"믇":10730,"믈":10731,"믉":10732,"믌":10733,"믐":10734,"믑":10735,"믓":10736,"믕":10737,"믛":10738,"믜":10739,"믝":10740,"믟":10741,"믠":10742,"믭":10743,"믯":10744,"믱":10745,"미":10746,"믹":10747,"민":10748,"믾":10749,"믿":10750,"밀":10751,"밂":10752,"밃":10753,"밄":10754,"밅":10755,"밆":10756,"밇":10757,"밈":10758,"밉":10759,"밊":10760,"밋":10761,"밌":10762,"밍":10763,"밎":10764,"및":10765,"밐":10766,"밑":10767,"밒":10768,"바":10769,"박":10770,"밖":10771,"밗":10772,"반":10773,"밚":10774,"받":10775,"발":10776,"밝":10777,"밞":10778,"밟":10779,"밠":10780,"밡":10781,"밢":10782,"밣":10783,"밤":10784,"밥":10785,"밧":10786,"밨":10787,"방":10788,"밪":10789,"밫":10790,"밬":10791,"밭":10792,"밮":10793,"밯":10794,"배":10795,"백":10796,"밲":10797,"밴":10798,"밵":10799,"밶":10800,"밷":10801,"밸":10802,"밻":10803,"밼":10804,"밿":10805,"뱀":10806,"뱁":10807,"뱂":10808,"뱃":10809,"뱄":10810,"뱅":10811,"뱉":10812,"뱌":10813,"뱍":10814,"뱐":10815,"뱔":10816,"뱖":10817,"뱗":10818,"뱚":10819,"뱜":10820,"뱝":10821,"뱟":10822,"뱡":10823,"뱩":10824,"뱸":10825,"뱻":10826,"뱼":10827,"뱿":10828,"벃":10829,"버":10830,"벅":10831,"번":10832,"벋":10833,"벌":10834,"벍":10835,"벎":10836,"벑":10837,"벓":10838,"범":10839,"법":10840,"벗":10841,"벘":10842,"벙":10843,"벚":10844,"벛":10845,"벜":10846,"벝":10847,"벟":10848,"베":10849,"벡":10850,"벤":10851,"벥":10852,"벧":10853,"벨":10854,"벩":10855,"벪":10856,"벫":10857,"벰":10858,"벱":10859,"벳":10860,"벴":10861,"벵":10862,"벶":10863,"벷":10864,"벸":10865,"벹":10866,"벼":10867,"벽":10868,"변":10869,"볂":10870,"볃":10871,"별":10872,"볌":10873,"볍":10874,"볏":10875,"볐":10876,"병":10877,"볓":10878,"볔":10879,"볕":10880,"볘":10881,"볜":10882,"볭":10883,"보":10884,"복":10885,"볶":10886,"볷":10887,"본":10888,"볻":10889,"볼":10890,"볽":10891,"볿":10892,"봄":10893,"봅":10894,"봇":10895,"봈":10896,"봉":10897,"봊":10898,"봍":10899,"봏":10900,"봐":10901,"봑":10902,"봔":10903,"봘":10904,"봞":10905,"봟":10906,"봠":10907,"봢":10908,"봣":10909,"봤":10910,"봥":10911,"봦":10912,"봧":10913,"봨":10914,"봩":10915,"봫":10916,"봬":10917,"봰":10918,"봱":10919,"봲":10920,"봳":10921,"봴":10922,"봶":10923,"봺":10924,"봻":10925,"봾":10926,"뵀":10927,"뵃":10928,"뵈":10929,"뵉":10930,"뵌":10931,"뵎":10932,"뵐":10933,"뵔":10934,"뵘":10935,"뵙":10936,"뵛":10937,"뵜":10938,"뵝":10939,"뵡":10940,"뵤":10941,"뵥":10942,"뵨":10943,"뵬":10944,"뵸":10945,"뵹":10946,"뵺":10947,"부":10948,"북":10949,"붂":10950,"붃":10951,"분":10952,"붆":10953,"붇":10954,"불":10955,"붉":10956,"붊":10957,"붋":10958,"붏":10959,"붐":10960,"붑":10961,"붒":10962,"붓":10963,"붕":10964,"붖":10965,"붗":10966,"붘":10967,"붙":10968,"붚":10969,"붜":10970,"붝":10971,"붠":10972,"붤":10973,"붰":10974,"붳":10975,"붴":10976,"붷":10977,"붸":10978,"붹":10979,"붼":10980,"붿":10981,"뷀":10982,"뷁":10983,"뷄":10984,"뷆":10985,"뷈":10986,"뷊":10987,"뷋":10988,"뷏":10989,"뷒":10990,"뷔":10991,"뷕":10992,"뷘":10993,"뷜":10994,"뷧":10995,"뷰":10996,"뷱":10997,"뷴":10998,"뷸":10999,"븀":11000,"븁":11001,"븂":11002,"븃":11003,"븅":11004,"븇":11005,"븉":11006,"브":11007,"븍":11008,"븐":11009,"븓":11010,"블":11011,"븕":11012,"븖":11013,"븜":11014,"븝":11015,"븟":11016,"븡":11017,"븥":11018,"븨":11019,"븬":11020,"븰":11021,"븴":11022,"븸":11023,"븹":11024,"븼":11025,"븿":11026,"빀":11027,"비":11028,"빅":11029,"빈":11030,"빉":11031,"빋":11032,"빌":11033,"빍":11034,"빎":11035,"빏":11036,"빓":11037,"빔":11038,"빕":11039,"빗":11040,"빘":11041,"빙":11042,"빚":11043,"빛":11044,"빝":11045,"빞":11046,"빟":11047,"빠":11048,"빡":11049,"빢":11050,"빤":11051,"빧":11052,"빨":11053,"빩":11054,"빪":11055,"빫":11056,"빬":11057,"빰":11058,"빱":11059,"빳":11060,"빴":11061,"빵":11062,"빻":11063,"빼":11064,"빽":11065,"빾":11066,"뺀":11067,"뺃":11068,"뺄":11069,"뺌":11070,"뺍":11071,"뺏":11072,"뺐":11073,"뺑":11074,"뺕":11075,"뺗":11076,"뺘":11077,"뺙":11078,"뺨":11079,"뺯":11080,"뺴":11081,"뺵":11082,"뺸":11083,"뺼":11084,"뻀":11085,"뻇":11086,"뻉":11087,"뻊":11088,"뻌":11089,"뻐":11090,"뻑":11091,"뻔":11092,"뻕":11093,"뻗":11094,"뻘":11095,"뻙":11096,"뻠":11097,"뻡":11098,"뻣":11099,"뻤":11100,"뻥":11101,"뻦":11102,"뻨":11103,"뻩":11104,"뻬":11105,"뻭":11106,"뻰":11107,"뻴":11108,"뻶":11109,"뻺":11110,"뻾":11111,"뻿":11112,"뼁":11113,"뼇":11114,"뼈":11115,"뼉":11116,"뼌":11117,"뼏":11118,"뼐":11119,"뼘":11120,"뼙":11121,"뼛":11122,"뼜":11123,"뼝":11124,"뼞":11125,"뼡":11126,"뼱":11127,"뼳":11128,"뽀":11129,"뽁":11130,"뽂":11131,"뽄":11132,"뽈":11133,"뽐":11134,"뽑":11135,"뽓":11136,"뽕":11137,"뽜":11138,"뽥":11139,"뽹":11140,"뾔":11141,"뾞":11142,"뾟":11143,"뾢":11144,"뾥":11145,"뾦":11146,"뾫":11147,"뾬":11148,"뾮":11149,"뾯":11150,"뾰":11151,"뾱":11152,"뾳":11153,"뾵":11154,"뿄":11155,"뿅":11156,"뿌":11157,"뿍":11158,"뿐":11159,"뿔":11160,"뿕":11161,"뿜":11162,"뿝":11163,"뿟":11164,"뿠":11165,"뿡":11166,"뿥":11167,"뿩":11168,"뿶":11169,"뿷":11170,"뿸":11171,"뿾":11172,"쀠":11173,"쀨":11174,"쀼":11175,"쁑":11176,"쁘":11177,"쁙":11178,"쁜":11179,"쁝":11180,"쁞":11181,"쁠":11182,"쁢":11183,"쁦":11184,"쁨":11185,"쁩":11186,"쁭":11187,"쁰":11188,"쁴":11189,"쁵":11190,"쁶":11191,"쁹":11192,"쁺":11193,"쁾":11194,"삏":11195,"삐":11196,"삑":11197,"삔":11198,"삘":11199,"삠":11200,"삡":11201,"삣":11202,"삤":11203,"삥":11204,"삦":11205,"삧":11206,"사":11207,"삭":11208,"삮":11209,"삯":11210,"산":11211,"삲":11212,"삳":11213,"살":11214,"삵":11215,"삶":11216,"삷":11217,"삸":11218,"삻":11219,"삼":11220,"삽":11221,"삿":11222,"샀":11223,"상":11224,"샂":11225,"샅":11226,"샆":11227,"샇":11228,"새":11229,"색":11230,"샌":11231,"샏":11232,"샐":11233,"샔":11234,"샘":11235,"샙":11236,"샛":11237,"샜":11238,"생":11239,"샞":11240,"샢":11241,"샤":11242,"샥":11243,"샨":11244,"샬":11245,"샴":11246,"샵":11247,"샷":11248,"샸":11249,"샹":11250,"샾":11251,"섀":11252,"섁":11253,"섂":11254,"섃":11255,"섄":11256,"섇":11257,"섈":11258,"섌":11259,"섐":11260,"섑":11261,"섕":11262,"섛":11263,"서":11264,"석":11265,"섞":11266,"섟":11267,"선":11268,"섣":11269,"설":11270,"섥":11271,"섦":11272,"섧":11273,"섪":11274,"섫":11275,"섬":11276,"섭":11277,"섯":11278,"섰":11279,"성":11280,"섲":11281,"섴":11282,"섶":11283,"섷":11284,"세":11285,"섹":11286,"섻":11287,"센":11288,"섾":11289,"섿":11290,"셀":11291,"셈":11292,"셉":11293,"셋":11294,"셌":11295,"셍":11296,"셑":11297,"셔":11298,"셕":11299,"션":11300,"셜":11301,"셟":11302,"셤":11303,"셥":11304,"셧":11305,"셨":11306,"셩":11307,"셬":11308,"셮":11309,"셰":11310,"셱":11311,"셳":11312,"셴":11313,"셸":11314,"솀":11315,"솁":11316,"솃":11317,"솅":11318,"소":11319,"속":11320,"솎":11321,"솏":11322,"손":11323,"솑":11324,"솓":11325,"솔":11326,"솖":11327,"솜":11328,"솝":11329,"솟":11330,"송":11331,"솢":11332,"솣":11333,"솥":11334,"솦":11335,"솨":11336,"솩":11337,"솪":11338,"솫":11339,"솬":11340,"솰":11341,"솴":11342,"솽":11343,"쇁":11344,"쇄":11345,"쇈":11346,"쇌":11347,"쇎":11348,"쇔":11349,"쇗":11350,"쇘":11351,"쇙":11352,"쇝":11353,"쇠":11354,"쇡":11355,"쇤":11356,"쇨":11357,"쇰":11358,"쇱":11359,"쇳":11360,"쇴":11361,"쇵":11362,"쇼":11363,"쇽":11364,"숀":11365,"숄":11366,"숌":11367,"숍":11368,"숏":11369,"숑":11370,"숖":11371,"수":11372,"숙":11373,"순":11374,"숟":11375,"술":11376,"숡":11377,"숤":11378,"숨":11379,"숩":11380,"숫":11381,"숭":11382,"숮":11383,"숯":11384,"숱":11385,"숲":11386,"숳":11387,"숴":11388,"숸":11389,"숼":11390,"쉅":11391,"쉇":11392,"쉈":11393,"쉉":11394,"쉊":11395,"쉋":11396,"쉌":11397,"쉍":11398,"쉎":11399,"쉐":11400,"쉑":11401,"쉓":11402,"쉔":11403,"쉕":11404,"쉗":11405,"쉘":11406,"쉜":11407,"쉝":11408,"쉞":11409,"쉠":11410,"쉡":11411,"쉣":11412,"쉤":11413,"쉥":11414,"쉧":11415,"쉨":11416,"쉪":11417,"쉬":11418,"쉭":11419,"쉰":11420,"쉴":11421,"쉺":11422,"쉼":11423,"쉽":11424,"쉿":11425,"슀":11426,"슁":11427,"슅":11428,"슆":11429,"슈":11430,"슉":11431,"슌":11432,"슏":11433,"슐":11434,"슘":11435,"슙":11436,"슛":11437,"슝":11438,"슟":11439,"스":11440,"슥":11441,"슨":11442,"슫":11443,"슬":11444,"슭":11445,"슯":11446,"슰":11447,"슲":11448,"슳":11449,"슴":11450,"습":11451,"슷":11452,"승":11453,"슻":11454,"슼":11455,"슽":11456,"슾":11457,"슿":11458,"싀":11459,"싁":11460,"싄":11461,"싈":11462,"싐":11463,"싑":11464,"시":11465,"식":11466,"신":11467,"싡":11468,"싢":11469,"싣":11470,"실":11471,"싥":11472,"싦":11473,"싧":11474,"싩":11475,"싫":11476,"심":11477,"십":11478,"싯":11479,"싰":11480,"싱":11481,"싲":11482,"싳":11483,"싴":11484,"싵":11485,"싶":11486,"싷":11487,"싸":11488,"싹":11489,"싺":11490,"싻":11491,"싼":11492,"싾":11493,"싿":11494,"쌀":11495,"쌂":11496,"쌈":11497,"쌉":11498,"쌋":11499,"쌌":11500,"쌍":11501,"쌒":11502,"쌓":11503,"쌔":11504,"쌕":11505,"쌘":11506,"쌜":11507,"쌤":11508,"쌥":11509,"쌧":11510,"쌨":11511,"쌩":11512,"쌯":11513,"쌰":11514,"쌱":11515,"쌲":11516,"쌳":11517,"쌴":11518,"쌷":11519,"쌺":11520,"쌻":11521,"썃":11522,"썅":11523,"썈":11524,"썎":11525,"썡":11526,"써":11527,"썩":11528,"썪":11529,"썬":11530,"썭":11531,"썯":11532,"썰":11533,"썲":11534,"썳":11535,"썴":11536,"썷":11537,"썸":11538,"썹":11539,"썻":11540,"썼":11541,"썽":11542,"썾":11543,"쎁":11544,"쎃":11545,"쎄":11546,"쎅":11547,"쎈":11548,"쎌":11549,"쎔":11550,"쎕":11551,"쎗":11552,"쎘":11553,"쎙":11554,"쎠":11555,"쎡":11556,"쎤":11557,"쎧":11558,"쎳":11559,"쎴":11560,"쎻":11561,"쎼":11562,"쎾":11563,"쏀":11564,"쏄":11565,"쏘":11566,"쏙":11567,"쏛":11568,"쏜":11569,"쏟":11570,"쏠":11571,"쏢":11572,"쏨":11573,"쏩":11574,"쏫":11575,"쏬":11576,"쏭":11577,"쏱":11578,"쏳":11579,"쏴":11580,"쏵":11581,"쏸":11582,"쏼":11583,"쏿":11584,"쐀":11585,"쐃":11586,"쐇":11587,"쐈":11588,"쐉":11589,"쐍":11590,"쐐":11591,"쐑":11592,"쐓":11593,"쐕":11594,"쐖":11595,"쐗":11596,"쐛":11597,"쐜":11598,"쐟":11599,"쐤":11600,"쐥":11601,"쐬":11602,"쐭":11603,"쐰":11604,"쐲":11605,"쐳":11606,"쐴":11607,"쐼":11608,"쐽":11609,"쐿":11610,"쑀":11611,"쑁":11612,"쑂":11613,"쑈":11614,"쑉":11615,"쑘":11616,"쑝":11617,"쑤":11618,"쑥":11619,"쑨":11620,"쑫":11621,"쑬":11622,"쑴":11623,"쑵":11624,"쑹":11625,"쒀":11626,"쒊":11627,"쒋":11628,"쒎":11629,"쒒":11630,"쒔":11631,"쒕":11632,"쒛":11633,"쒜":11634,"쒞":11635,"쒠":11636,"쒡":11637,"쒢":11638,"쒨":11639,"쒪":11640,"쒮":11641,"쒲":11642,"쒸":11643,"쒼":11644,"쓀":11645,"쓆":11646,"쓇":11647,"쓉":11648,"쓊":11649,"쓎":11650,"쓔":11651,"쓖":11652,"쓘":11653,"쓚":11654,"쓛":11655,"쓜":11656,"쓠":11657,"쓥":11658,"쓩":11659,"쓰":11660,"쓱":11661,"쓴":11662,"쓷":11663,"쓸":11664,"쓺":11665,"쓿":11666,"씀":11667,"씁":11668,"씃":11669,"씅":11670,"씉":11671,"씊":11672,"씌":11673,"씎":11674,"씐":11675,"씓":11676,"씔":11677,"씜":11678,"씟":11679,"씠":11680,"씣":11681,"씨":11682,"씩":11683,"씪":11684,"씬":11685,"씯":11686,"씰":11687,"씱":11688,"씸":11689,"씹":11690,"씻":11691,"씼":11692,"씽":11693,"앂":11694,"앃":11695,"아":11696,"악":11697,"앆":11698,"안":11699,"앉":11700,"않":11701,"앋":11702,"알":11703,"앍":11704,"앎":11705,"앏":11706,"앐":11707,"앑":11708,"앒":11709,"앓":11710,"암":11711,"압":11712,"앖":11713,"앗":11714,"았":11715,"앙":11716,"앚":11717,"앛":11718,"앜":11719,"앝":11720,"앞":11721,"앟":11722,"애":11723,"액":11724,"앤":11725,"앧":11726,"앨":11727,"앰":11728,"앱":11729,"앳":11730,"앴":11731,"앵":11732,"앻":11733,"야":11734,"약":11735,"얀":11736,"얄":11737,"얅":11738,"얆":11739,"얇":11740,"얉":11741,"얌":11742,"얍":11743,"얎":11744,"얏":11745,"얐":11746,"양":11747,"얕":11748,"얖":11749,"얗":11750,"얘":11751,"얙":11752,"얜":11753,"얠":11754,"얦":11755,"얨":11756,"얩":11757,"얫":11758,"얬":11759,"얭":11760,"얯":11761,"얳":11762,"어":11763,"억":11764,"얶":11765,"얷":11766,"언":11767,"얹":11768,"얺":11769,"얻":11770,"얼":11771,"얽":11772,"얾":11773,"엀":11774,"엄":11775,"업":11776,"없":11777,"엇":11778,"었":11779,"엉":11780,"엊":11781,"엌":11782,"엍":11783,"엎":11784,"엏":11785,"에":11786,"엑":11787,"엔":11788,"엗":11789,"엘":11790,"엛":11791,"엜":11792,"엝":11793,"엠":11794,"엡":11795,"엣":11796,"엤":11797,"엥":11798,"엦":11799,"엨":11800,"엩":11801,"여":11802,"역":11803,"엮":11804,"엯":11805,"연":11806,"엱":11807,"엲":11808,"엳":11809,"열":11810,"엵":11811,"엶":11812,"엷":11813,"엸":11814,"엹":11815,"염":11816,"엽":11817,"엾":11818,"엿":11819,"였":11820,"영":11821,"옂":11822,"옃":11823,"옄":11824,"옅":11825,"옆":11826,"옇":11827,"예":11828,"옉":11829,"옋":11830,"옌":11831,"옎":11832,"옐":11833,"옘":11834,"옙":11835,"옛":11836,"옜":11837,"옝":11838,"옞":11839,"옟":11840,"오":11841,"옥":11842,"온":11843,"옪":11844,"옫":11845,"올":11846,"옭":11847,"옮":11848,"옯":11849,"옰":11850,"옳":11851,"옴":11852,"옵":11853,"옶":11854,"옷":11855,"옸":11856,"옹":11857,"옺":11858,"옻":11859,"옽":11860,"옾":11861,"옿":11862,"와":11863,"왁":11864,"완":11865,"왆":11866,"왇":11867,"왈":11868,"왉":11869,"왊":11870,"왍":11871,"왏":11872,"왐":11873,"왑":11874,"왒":11875,"왓":11876,"왔":11877,"왕":11878,"왚":11879,"왛":11880,"왜":11881,"왝":11882,"왠":11883,"왤":11884,"왬":11885,"왭":11886,"왯":11887,"왰":11888,"왱":11889,"외":11890,"왹":11891,"왼":11892,"욀":11893,"욂":11894,"욈":11895,"욉":11896,"욋":11897,"욌":11898,"욍":11899,"요":11900,"욕":11901,"욘":11902,"욜":11903,"욤":11904,"욥":11905,"욧":11906,"욨":11907,"용":11908,"욪":11909,"욯":11910,"우":11911,"욱":11912,"욳":11913,"운":11914,"욷":11915,"울":11916,"욹":11917,"욺":11918,"욼":11919,"욿":11920,"움":11921,"웁":11922,"웂":11923,"웃":11924,"웄":11925,"웅":11926,"웆":11927,"웇":11928,"웈":11929,"웉":11930,"웊":11931,"웋":11932,"워":11933,"웍":11934,"웏":11935,"원":11936,"웑":11937,"웒":11938,"웓":11939,"월":11940,"웕":11941,"웗":11942,"웘":11943,"웙":11944,"웛":11945,"웜":11946,"웝":11947,"웞":11948,"웟":11949,"웠":11950,"웡":11951,"웢":11952,"웣":11953,"웤":11954,"웥":11955,"웦":11956,"웧":11957,"웨":11958,"웩":11959,"웪":11960,"웫":11961,"웬":11962,"웭":11963,"웮":11964,"웰":11965,"웳":11966,"웸":11967,"웹":11968,"웻":11969,"웼":11970,"웽":11971,"윁":11972,"위":11973,"윅":11974,"윈":11975,"윌":11976,"윔":11977,"윕":11978,"윗":11979,"윘":11980,"윙":11981,"윚":11982,"윛":11983,"윞":11984,"윟":11985,"유":11986,"육":11987,"윢":11988,"윤":11989,"윥":11990,"율":11991,"윪":11992,"윰":11993,"윱":11994,"윲":11995,"윳":11996,"융":11997,"윶":11998,"윷":11999,"윹":12000,"윻":12001,"으":12002,"윽":12003,"윿":12004,"은":12005,"읃":12006,"을":12007,"읅":12008,"읆":12009,"읇":12010,"읊":12011,"읋":12012,"음":12013,"읍":12014,"읎":12015,"읏":12016,"응":12017,"읒":12018,"읓":12019,"읔":12020,"읕":12021,"읖":12022,"읗":12023,"의":12024,"읜":12025,"읟":12026,"읠":12027,"읨":12028,"읩":12029,"읫":12030,"읬":12031,"읭":12032,"읳":12033,"이":12034,"익":12035,"읶":12036,"인":12037,"읹":12038,"읺":12039,"읻":12040,"일":12041,"읽":12042,"읾":12043,"읿":12044,"잀":12045,"잂":12046,"잃":12047,"임":12048,"입":12049,"잆":12050,"잇":12051,"있":12052,"잉":12053,"잊":12054,"잋":12055,"잌":12056,"잍":12057,"잎":12058,"잏":12059,"자":12060,"작":12061,"잓":12062,"잔":12063,"잖":12064,"잗":12065,"잘":12066,"잚":12067,"잛":12068,"잟":12069,"잠":12070,"잡":12071,"잣":12072,"잤":12073,"장":12074,"잦":12075,"잧":12076,"잩":12077,"잪":12078,"잫":12079,"재":12080,"잭":12081,"잰":12082,"잲":12083,"잴":12084,"잸":12085,"잼":12086,"잽":12087,"잿":12088,"쟀":12089,"쟁":12090,"쟂":12091,"쟃":12092,"쟆":12093,"쟈":12094,"쟉":12095,"쟌":12096,"쟍":12097,"쟎":12098,"쟐":12099,"쟕":12100,"쟖":12101,"쟘":12102,"쟙":12103,"쟛":12104,"쟝":12105,"쟞":12106,"쟟":12107,"쟢":12108,"쟤":12109,"쟥":12110,"쟧":12111,"쟨":12112,"쟩":12113,"쟬":12114,"쟱":12115,"쟳":12116,"쟵":12117,"쟷":12118,"쟸":12119,"쟻":12120,"쟼":12121,"쟿":12122,"저":12123,"적":12124,"젂":12125,"전":12126,"젅":12127,"젆":12128,"젇":12129,"절":12130,"젉":12131,"젊":12132,"젋":12133,"젌":12134,"젏":12135,"점":12136,"접":12137,"젒":12138,"젓":12139,"젔":12140,"정":12141,"젖":12142,"젗":12143,"젙":12144,"젚":12145,"젛":12146,"제":12147,"젝":12148,"젞":12149,"젠":12150,"젤":12151,"젬":12152,"젭":12153,"젯":12154,"젰":12155,"젱":12156,"젲":12157,"젶":12158,"져":12159,"젹":12160,"젺":12161,"젼":12162,"졀":12163,"졂":12164,"졃":12165,"졈":12166,"졉":12167,"졋":12168,"졌":12169,"졍":12170,"졎":12171,"졑":12172,"졔":12173,"졕":12174,"졘":12175,"졧":12176,"졩":12177,"조":12178,"족":12179,"존":12180,"졶":12181,"졷":12182,"졸":12183,"졹":12184,"졺":12185,"졻":12186,"졾":12187,"좀":12188,"좁":12189,"좃":12190,"종":12191,"좆":12192,"좇":12193,"좈":12194,"좉":12195,"좋":12196,"좌":12197,"좍":12198,"좐":12199,"좓":12200,"좔":12201,"좘":12202,"좚":12203,"좛":12204,"좝":12205,"좟":12206,"좠":12207,"좡":12208,"좣":12209,"좥":12210,"좦":12211,"좧":12212,"좨":12213,"좩":12214,"좪":12215,"좫":12216,"좬":12217,"좭":12218,"좮":12219,"좯":12220,"좰":12221,"좱":12222,"좶":12223,"좷":12224,"좺":12225,"좼":12226,"좽":12227,"죂":12228,"죃":12229,"죄":12230,"죇":12231,"죈":12232,"죌":12233,"죍":12234,"죐":12235,"죔":12236,"죕":12237,"죗":12238,"죘":12239,"죙":12240,"죚":12241,"죜":12242,"죟":12243,"죠":12244,"죡":12245,"죢":12246,"죣":12247,"죤":12248,"죧":12249,"죨":12250,"죪":12251,"죰":12252,"죱":12253,"죳":12254,"죵":12255,"죶":12256,"죻":12257,"주":12258,"죽":12259,"준":12260,"줁":12261,"줂":12262,"줃":12263,"줄":12264,"줅":12265,"줆":12266,"줈":12267,"줋":12268,"줌":12269,"줍":12270,"줏":12271,"줐":12272,"중":12273,"줒":12274,"줕":12275,"줖":12276,"줗":12277,"줘":12278,"줙":12279,"줜":12280,"줝":12281,"줫":12282,"줬":12283,"줭":12284,"줴":12285,"줸":12286,"쥃":12287,"쥈":12288,"쥉":12289,"쥊":12290,"쥌":12291,"쥏":12292,"쥐":12293,"쥑":12294,"쥒":12295,"쥓":12296,"쥔":12297,"쥘":12298,"쥠":12299,"쥡":12300,"쥢":12301,"쥣":12302,"쥤":12303,"쥥":12304,"쥬":12305,"쥭":12306,"쥰":12307,"쥱":12308,"쥲":12309,"쥴":12310,"쥶":12311,"쥷":12312,"쥼":12313,"쥽":12314,"쥿":12315,"즁":12316,"즈":12317,"즉":12318,"즌":12319,"즐":12320,"즑":12321,"즘":12322,"즙":12323,"즛":12324,"증":12325,"즞":12326,"즣":12327,"즤":12328,"즰":12329,"즶":12330,"즼":12331,"지":12332,"직":12333,"짂":12334,"진":12335,"짆":12336,"짇":12337,"질":12338,"짉":12339,"짊":12340,"짋":12341,"짏":12342,"짐":12343,"집":12344,"짒":12345,"짓":12346,"짔":12347,"징":12348,"짖":12349,"짙":12350,"짚":12351,"짛":12352,"짜":12353,"짝":12354,"짞":12355,"짟":12356,"짠":12357,"짡":12358,"짢":12359,"짣":12360,"짤":12361,"짥":12362,"짦":12363,"짧":12364,"짫":12365,"짬":12366,"짭":12367,"짮":12368,"짯":12369,"짰":12370,"짱":12371,"짲":12372,"짳":12373,"짴":12374,"짵":12375,"짶":12376,"짷":12377,"째":12378,"짹":12379,"짼":12380,"짾":12381,"짿":12382,"쨀":12383,"쨁":12384,"쨂":12385,"쨅":12386,"쨆":12387,"쨇":12388,"쨈":12389,"쨉":12390,"쨋":12391,"쨌":12392,"쨍":12393,"쨎":12394,"쨏":12395,"쨑":12396,"쨒":12397,"쨓":12398,"쨔":12399,"쨖":12400,"쨘":12401,"쨜":12402,"쨞":12403,"쨠":12404,"쨢":12405,"쨤":12406,"쨦":12407,"쨧":12408,"쨨":12409,"쨩":12410,"쨪":12411,"쨫":12412,"쨰":12413,"쨴":12414,"쨻":12415,"쨿":12416,"쩁":12417,"쩄":12418,"쩆":12419,"쩇":12420,"쩉":12421,"쩌":12422,"쩍":12423,"쩎":12424,"쩏":12425,"쩐":12426,"쩑":12427,"쩒":12428,"쩓":12429,"쩔":12430,"쩖":12431,"쩗":12432,"쩘":12433,"쩙":12434,"쩚":12435,"쩛":12436,"쩜":12437,"쩝":12438,"쩟":12439,"쩠":12440,"쩡":12441,"쩢":12442,"쩤":12443,"쩨":12444,"쩫":12445,"쩬":12446,"쩯":12447,"쩰":12448,"쩳":12449,"쩴":12450,"쩸":12451,"쩽":12452,"쩾":12453,"쪂":12454,"쪄":12455,"쪅":12456,"쪇":12457,"쪈":12458,"쪊":12459,"쪗":12460,"쪘":12461,"쪙":12462,"쪬":12463,"쪱":12464,"쪳":12465,"쪵":12466,"쪸":12467,"쪹":12468,"쪻":12469,"쪼":12470,"쪽":12471,"쪾":12472,"쫀":12473,"쫃":12474,"쫄":12475,"쫅":12476,"쫌":12477,"쫍":12478,"쫏":12479,"쫑":12480,"쫒":12481,"쫓":12482,"쫖":12483,"쫗":12484,"쫘":12485,"쫙":12486,"쫚":12487,"쫛":12488,"쫜":12489,"쫞":12490,"쫤":12491,"쫨":12492,"쫩":12493,"쫭":12494,"쫱":12495,"쫲":12496,"쫴":12497,"쫾":12498,"쬀":12499,"쬄":12500,"쬈":12501,"쬋":12502,"쬎":12503,"쬐":12504,"쬑":12505,"쬔":12506,"쬘":12507,"쬠":12508,"쬡":12509,"쬣":12510,"쬤":12511,"쬦":12512,"쬧":12513,"쬪":12514,"쬫":12515,"쬬":12516,"쬭":12517,"쬮":12518,"쬰":12519,"쬲":12520,"쬶":12521,"쬷":12522,"쬼":12523,"쭁":12524,"쭃":12525,"쭈":12526,"쭉":12527,"쭌":12528,"쭐":12529,"쭕":12530,"쭗":12531,"쭘":12532,"쭙":12533,"쭛":12534,"쭝":12535,"쭟":12536,"쭤":12537,"쭦":12538,"쭪":12539,"쭭":12540,"쭷":12541,"쭸":12542,"쭹":12543,"쭻":12544,"쭼":12545,"쭿":12546,"쮀":12547,"쮅":12548,"쮇":12549,"쮉":12550,"쮊":12551,"쮋":12552,"쮌":12553,"쮏":12554,"쮑":12555,"쮓":12556,"쮔":12557,"쮖":12558,"쮙":12559,"쮚":12560,"쮛":12561,"쮜":12562,"쮝":12563,"쮞":12564,"쮟":12565,"쮠":12566,"쮡":12567,"쮤":12568,"쮦":12569,"쮩":12570,"쮫":12571,"쮱":12572,"쮸":12573,"쮺":12574,"쯂":12575,"쯅":12576,"쯇":12577,"쯋":12578,"쯍":12579,"쯔":12580,"쯕":12581,"쯘":12582,"쯚":12583,"쯜":12584,"쯠":12585,"쯤":12586,"쯥":12587,"쯧":12588,"쯩":12589,"쯪":12590,"쯫":12591,"쯰":12592,"쯲":12593,"찌":12594,"찍":12595,"찎":12596,"찐":12597,"찓":12598,"찔":12599,"찖":12600,"찗":12601,"찘":12602,"찜":12603,"찝":12604,"찟":12605,"찠":12606,"찡":12607,"찢":12608,"찣":12609,"찦":12610,"찧":12611,"차":12612,"착":12613,"찫":12614,"찬":12615,"찮":12616,"찯":12617,"찰":12618,"찱":12619,"찶":12620,"참":12621,"찹":12622,"찻":12623,"찼":12624,"창":12625,"찾":12626,"찿":12627,"챁":12628,"챂":12629,"챃":12630,"채":12631,"책":12632,"챇":12633,"챈":12634,"챌":12635,"챏":12636,"챔":12637,"챕":12638,"챗":12639,"챘":12640,"챙":12641,"챝":12642,"챠":12643,"챡":12644,"챤":12645,"챦":12646,"챨":12647,"챰":12648,"챱":12649,"챳":12650,"챴":12651,"챵":12652,"챶":12653,"챸":12654,"챹":12655,"챻":12656,"챼":12657,"챽":12658,"첀":12659,"첂":12660,"첄":12661,"첅":12662,"첆":12663,"첇":12664,"첉":12665,"첊":12666,"첐":12667,"첔":12668,"처":12669,"척":12670,"첚":12671,"첛":12672,"천":12673,"첝":12674,"첟":12675,"철":12676,"첨":12677,"첩":12678,"첫":12679,"첬":12680,"청":12681,"첮":12682,"첯":12683,"첰":12684,"첱":12685,"첳":12686,"체":12687,"첵":12688,"첸":12689,"첺":12690,"첼":12691,"첿":12692,"쳃":12693,"쳄":12694,"쳅":12695,"쳇":12696,"쳉":12697,"쳌":12698,"쳏":12699,"쳐":12700,"쳑":12701,"쳔":12702,"쳕":12703,"쳖":12704,"쳗":12705,"쳘":12706,"쳠":12707,"쳡":12708,"쳣":12709,"쳤":12710,"쳥":12711,"쳪":12712,"쳬":12713,"쳰":12714,"쳴":12715,"촅":12716,"초":12717,"촉":12718,"촌":12719,"촍":12720,"촐":12721,"촔":12722,"촘":12723,"촙":12724,"촛":12725,"총":12726,"촟":12727,"촡":12728,"촢":12729,"촣":12730,"촤":12731,"촥":12732,"촦":12733,"촨":12734,"촩":12735,"촪":12736,"촫":12737,"촬":12738,"촭":12739,"촮":12740,"촯":12741,"촱":12742,"촴":12743,"촵":12744,"촶":12745,"촸":12746,"촹":12747,"촺":12748,"촻":12749,"촿":12750,"쵀":12751,"쵃":12752,"쵄":12753,"쵇":12754,"쵏":12755,"쵓":12756,"쵔":12757,"쵕":12758,"최":12759,"쵝":12760,"쵠":12761,"쵡":12762,"쵢":12763,"쵣":12764,"쵤":12765,"쵦":12766,"쵧":12767,"쵪":12768,"쵬":12769,"쵭":12770,"쵯":12771,"쵱":12772,"쵶":12773,"쵷":12774,"쵸":12775,"쵹":12776,"쵻":12777,"쵼":12778,"춀":12779,"춁":12780,"춅":12781,"춈":12782,"춉":12783,"춍":12784,"추":12785,"축":12786,"춘":12787,"춚":12788,"춛":12789,"출":12790,"춟":12791,"춠":12792,"춢":12793,"춣":12794,"춤":12795,"춥":12796,"춧":12797,"충":12798,"춪":12799,"춫":12800,"춭":12801,"춮":12802,"춰":12803,"춱":12804,"춴":12805,"춸":12806,"췃":12807,"췄":12808,"췅":12809,"췆":12810,"췇":12811,"췌":12812,"췍":12813,"췐":12814,"췕":12815,"췡":12816,"췢":12817,"췤":12818,"취":12819,"췩":12820,"췪":12821,"췬":12822,"췰":12823,"췲":12824,"췷":12825,"췸":12826,"췹":12827,"췻":12828,"췽":12829,"츃":12830,"츄":12831,"츅":12832,"츈":12833,"츉":12834,"츌":12835,"츎":12836,"츔":12837,"츕":12838,"츗":12839,"츘":12840,"츙":12841,"츛":12842,"츜":12843,"츞":12844,"츠":12845,"측":12846,"츤":12847,"츥":12848,"츨":12849,"츩":12850,"츬":12851,"츰":12852,"츱":12853,"츳":12854,"층":12855,"츹":12856,"츼":12857,"칊":12858,"칎":12859,"칑":12860,"칒":12861,"칗":12862,"치":12863,"칙":12864,"친":12865,"칝":12866,"칞":12867,"칟":12868,"칠":12869,"칡":12870,"칢":12871,"칣":12872,"칤":12873,"칦":12874,"침":12875,"칩":12876,"칫":12877,"칬":12878,"칭":12879,"칮":12880,"칱":12881,"칲":12882,"칳":12883,"카":12884,"칵":12885,"칸":12886,"칼":12887,"캄":12888,"캅":12889,"캇":12890,"캈":12891,"캉":12892,"캌":12893,"캐":12894,"캑":12895,"캔":12896,"캗":12897,"캘":12898,"캠":12899,"캡":12900,"캣":12901,"캤":12902,"캥":12903,"캪":12904,"캬":12905,"캭":12906,"캰":12907,"캴":12908,"캶":12909,"캻":12910,"캼":12911,"캿":12912,"컁":12913,"컇":12914,"컈":12915,"컑":12916,"컒":12917,"컖":12918,"컗":12919,"컘":12920,"컡":12921,"커":12922,"컥":12923,"컨":12924,"컫":12925,"컬":12926,"컴":12927,"컵":12928,"컷":12929,"컸":12930,"컹":12931,"컽":12932,"컾":12933,"케":12934,"켁":12935,"켂":12936,"켄":12937,"켇":12938,"켈":12939,"켍":12940,"켐":12941,"켑":12942,"켓":12943,"켔":12944,"켕":12945,"켖":12946,"켗":12947,"켙":12948,"켚":12949,"켜":12950,"켝":12951,"켠":12952,"켣":12953,"켤":12954,"켦":12955,"켨":12956,"켬":12957,"켭":12958,"켯":12959,"켰":12960,"켱":12961,"켲":12962,"켳":12963,"켵":12964,"켸":12965,"콅":12966,"콆":12967,"콊":12968,"콋":12969,"콍":12970,"콎":12971,"코":12972,"콕":12973,"콗":12974,"콘":12975,"콛":12976,"콜":12977,"콟":12978,"콤":12979,"콥":12980,"콧":12981,"콩":12982,"콭":12983,"콰":12984,"콱":12985,"콲":12986,"콴":12987,"콷":12988,"콸":12989,"콼":12990,"쾀":12991,"쾃":12992,"쾄":12993,"쾅":12994,"쾌":12995,"쾍":12996,"쾐":12997,"쾓":12998,"쾖":12999,"쾡":13000,"쾨":13001,"쾪":13002,"쾫":13003,"쾬":13004,"쾰":13005,"쾱":13006,"쾻":13007,"쾿":13008,"쿂":13009,"쿄":13010,"쿈":13011,"쿋":13012,"쿌":13013,"쿞":13014,"쿠":13015,"쿡":13016,"쿢":13017,"쿤":13018,"쿨":13019,"쿪":13020,"쿫":13021,"쿮":13022,"쿰":13023,"쿱":13024,"쿳":13025,"쿴":13026,"쿵":13027,"쿶":13028,"쿸":13029,"쿼":13030,"쿽":13031,"쿿":13032,"퀀":13033,"퀂":13034,"퀄":13035,"퀇":13036,"퀈":13037,"퀉":13038,"퀋":13039,"퀌":13040,"퀏":13041,"퀐":13042,"퀑":13043,"퀘":13044,"퀙":13045,"퀛":13046,"퀜":13047,"퀠":13048,"퀤":13049,"퀨":13050,"퀩":13051,"퀬":13052,"퀭":13053,"퀲":13054,"퀴":13055,"퀵":13056,"퀸":13057,"퀼":13058,"큁":13059,"큄":13060,"큅":13061,"큇":13062,"큉":13063,"큌":13064,"큐":13065,"큑":13066,"큒":13067,"큓":13068,"큔":13069,"큕":13070,"큖":13071,"큗":13072,"큘":13073,"큙":13074,"큛":13075,"큞":13076,"큟":13077,"큠":13078,"큡":13079,"큢":13080,"큣":13081,"큤":13082,"큥":13083,"큦":13084,"큧":13085,"큨":13086,"큩":13087,"큪":13088,"큫":13089,"크":13090,"큭":13091,"큰":13092,"큱":13093,"큲":13094,"클":13095,"큶":13096,"큺":13097,"큼":13098,"큽":13099,"큿":13100,"킁":13101,"킈":13102,"킋":13103,"킌":13104,"킕":13105,"킙":13106,"킝":13107,"킡":13108,"키":13109,"킥":13110,"킨":13111,"킬":13112,"킱":13113,"킳":13114,"킴":13115,"킵":13116,"킶":13117,"킷":13118,"킸":13119,"킹":13120,"킻":13121,"킿":13122,"타":13123,"탁":13124,"탄":13125,"탅":13126,"탆":13127,"탈":13128,"탉":13129,"탌":13130,"탎":13131,"탏":13132,"탐":13133,"탑":13134,"탒":13135,"탓":13136,"탔":13137,"탕":13138,"탖":13139,"탗":13140,"탘":13141,"탙":13142,"탚":13143,"탛":13144,"태":13145,"택":13146,"탠":13147,"탡":13148,"탣":13149,"탤":13150,"탦":13151,"탬":13152,"탭":13153,"탮":13154,"탯":13155,"탰":13156,"탱":13157,"탶":13158,"탸":13159,"탹":13160,"탼":13161,"턀":13162,"턅":13163,"턉":13164,"턍":13165,"턔":13166,"턕":13167,"턖":13168,"턠":13169,"턡":13170,"턣":13171,"턫":13172,"터":13173,"턱":13174,"턴":13175,"털":13176,"턹":13177,"턻":13178,"턿":13179,"텀":13180,"텁":13181,"텂":13182,"텃":13183,"텄":13184,"텅":13185,"텆":13186,"텇":13187,"텈":13188,"텉":13189,"텊":13190,"텋":13191,"테":13192,"텍":13193,"텎":13194,"텐":13195,"텔":13196,"텘":13197,"템":13198,"텝":13199,"텞":13200,"텟":13201,"텡":13202,"텢":13203,"텥":13204,"텦":13205,"텨":13206,"텩":13207,"텬":13208,"텮":13209,"텯":13210,"텰":13211,"텲":13212,"텶":13213,"텹":13214,"텻":13215,"텼":13216,"텽":13217,"톃":13218,"톄":13219,"톈":13220,"톉":13221,"톋":13222,"톌":13223,"톏":13224,"톒":13225,"톓":13226,"톙":13227,"톛":13228,"톟":13229,"토":13230,"톡":13231,"톢":13232,"톣":13233,"톤":13234,"톧":13235,"톨":13236,"톩":13237,"톰":13238,"톱":13239,"톳":13240,"통":13241,"톷":13242,"톹":13243,"톺":13244,"톼":13245,"퇀":13246,"퇂":13247,"퇄":13248,"퇘":13249,"퇟":13250,"퇠":13251,"퇨":13252,"퇫":13253,"퇬":13254,"퇯":13255,"퇱":13256,"퇳":13257,"퇴":13258,"퇶":13259,"퇸":13260,"퇻":13261,"퇼":13262,"퇽":13263,"퇿":13264,"툁":13265,"툂":13266,"툃":13267,"툅":13268,"툇":13269,"툈":13270,"툉":13271,"툍":13272,"툐":13273,"툘":13274,"툜":13275,"툞":13276,"툠":13277,"툡":13278,"툥":13279,"툪":13280,"툫":13281,"투":13282,"툭":13283,"툰":13284,"툱":13285,"툴":13286,"툶":13287,"툼":13288,"툽":13289,"툿":13290,"퉁":13291,"퉆":13292,"퉇":13293,"퉈":13294,"퉍":13295,"퉓":13296,"퉗":13297,"퉜":13298,"퉢":13299,"퉣":13300,"퉤":13301,"퉥":13302,"퉬":13303,"퉴":13304,"퉶":13305,"퉷":13306,"퉹":13307,"퉿":13308,"튀":13309,"튁":13310,"튄":13311,"튈":13312,"튍":13313,"튐":13314,"튑":13315,"튓":13316,"튔":13317,"튕":13318,"튜":13319,"튝":13320,"튠":13321,"튤":13322,"튫":13323,"튬":13324,"튭":13325,"튮":13326,"튱":13327,"트":13328,"특":13329,"튼":13330,"튿":13331,"틀":13332,"틂":13333,"틃":13334,"틄":13335,"틈":13336,"틉":13337,"틋":13338,"틌":13339,"틍":13340,"틎":13341,"틐":13342,"틑":13343,"틒":13344,"틓":13345,"틔":13346,"틕":13347,"틗":13348,"틘":13349,"틜":13350,"틝":13351,"틤":13352,"틥":13353,"틧":13354,"틩":13355,"틪":13356,"틭":13357,"티":13358,"틱":13359,"틴":13360,"틸":13361,"틿":13362,"팀":13363,"팁":13364,"팃":13365,"팅":13366,"팇":13367,"팉":13368,"파":13369,"팍":13370,"팎":13371,"판":13372,"팑":13373,"팒":13374,"팓":13375,"팔":13376,"팖":13377,"팚":13378,"팛":13379,"팜":13380,"팝":13381,"팟":13382,"팠":13383,"팡":13384,"팤":13385,"팥":13386,"팦":13387,"패":13388,"팩":13389,"팬":13390,"팭":13391,"팯":13392,"팰":13393,"팱":13394,"팸":13395,"팹":13396,"팻":13397,"팼":13398,"팽":13399,"팾":13400,"팿":13401,"퍁":13402,"퍂":13403,"퍄":13404,"퍅":13405,"퍆":13406,"퍈":13407,"퍊":13408,"퍌":13409,"퍎":13410,"퍑":13411,"퍙":13412,"퍠":13413,"퍮":13414,"퍳":13415,"퍵":13416,"퍼":13417,"퍽":13418,"펀":13419,"펃":13420,"펄":13421,"펈":13422,"펉":13423,"펊":13424,"펌":13425,"펍":13426,"펏":13427,"펐":13428,"펑":13429,"펓":13430,"펕":13431,"페":13432,"펙":13433,"펚":13434,"펜":13435,"펟":13436,"펠":13437,"펧":13438,"펨":13439,"펩":13440,"펫":13441,"펭":13442,"펯":13443,"펱":13444,"펴":13445,"펵":13446,"편":13447,"펺":13448,"펼":13449,"폃":13450,"폄":13451,"폅":13452,"폇":13453,"폈":13454,"평":13455,"폊":13456,"폋":13457,"폐":13458,"폒":13459,"폓":13460,"폔":13461,"폖":13462,"폘":13463,"폠":13464,"폡":13465,"폣":13466,"폨":13467,"포":13468,"폭":13469,"폮":13470,"폰":13471,"폳":13472,"폴":13473,"폼":13474,"폽":13475,"폿":13476,"퐁":13477,"퐃":13478,"퐄":13479,"퐅":13480,"퐆":13481,"퐈":13482,"퐉":13483,"퐌":13484,"퐐":13485,"퐙":13486,"퐝":13487,"퐹":13488,"퐾":13489,"푀":13490,"푁":13491,"푄":13492,"푈":13493,"푓":13494,"푕":13495,"푗":13496,"표":13497,"푝":13498,"푠":13499,"푤":13500,"푭":13501,"푯":13502,"푱":13503,"푲":13504,"푴":13505,"푶":13506,"푸":13507,"푹":13508,"푼":13509,"푿":13510,"풀":13511,"풂":13512,"풄":13513,"품":13514,"풉":13515,"풋":13516,"풍":13517,"풑":13518,"풓":13519,"풔":13520,"풘":13521,"풛":13522,"풩":13523,"풰":13524,"풴":13525,"풹":13526,"퓉":13527,"퓌":13528,"퓐":13529,"퓔":13530,"퓘":13531,"퓙":13532,"퓜":13533,"퓟":13534,"퓡":13535,"퓨":13536,"퓬":13537,"퓮":13538,"퓰":13539,"퓶":13540,"퓷":13541,"퓸":13542,"퓻":13543,"퓼":13544,"퓽":13545,"픁":13546,"프":13547,"픅":13548,"픈":13549,"플":13550,"픐":13551,"픔":13552,"픕":13553,"픗":13554,"픙":13555,"픛":13556,"픞":13557,"픟":13558,"픠":13559,"픢":13560,"픤":13561,"픦":13562,"픮":13563,"픲":13564,"픳":13565,"픴":13566,"픵":13567,"픶":13568,"픸":13569,"픹":13570,"피":13571,"픽":13572,"픾":13573,"핀":13574,"핃":13575,"필":13576,"핌":13577,"핍":13578,"핎":13579,"핏":13580,"핐":13581,"핑":13582,"핔":13583,"핕":13584,"핖":13585,"하":13586,"학":13587,"핚":13588,"핛":13589,"한":13590,"핝":13591,"핞":13592,"핟":13593,"할":13594,"핡":13595,"핤":13596,"핥":13597,"핧":13598,"함":13599,"합":13600,"핫":13601,"핬":13602,"항":13603,"핮":13604,"핱":13605,"핳":13606,"해":13607,"핵":13608,"핶":13609,"핸":13610,"핺":13611,"핻":13612,"핼":13613,"햁":13614,"햄":13615,"햅":13616,"햇":13617,"했":13618,"행":13619,"햊":13620,"햋":13621,"햌":13622,"햎":13623,"햏":13624,"햐":13625,"햑":13626,"햔":13627,"햗":13628,"햘":13629,"햙":13630,"햝":13631,"햠":13632,"햡":13633,"햢":13634,"햣":13635,"햤":13636,"향":13637,"햫":13638,"햬":13639,"햵":13640,"햻":13641,"헀":13642,"헂":13643,"허":13644,"헉":13645,"헊":13646,"헌":13647,"헐":13648,"헒":13649,"험":13650,"헙":13651,"헛":13652,"헜":13653,"헝":13654,"헠":13655,"헤":13656,"헥":13657,"헦":13658,"헨":13659,"헬":13660,"헰":13661,"헴":13662,"헵":13663,"헷":13664,"헸":13665,"헹":13666,"헺":13667,"헽":13668,"헿":13669,"혀":13670,"혁":13671,"현":13672,"혈":13673,"혉":13674,"혐":13675,"협":13676,"혓":13677,"혔":13678,"형":13679,"혖":13680,"혗":13681,"혚":13682,"혜":13683,"혝":13684,"혞":13685,"혟":13686,"혠":13687,"혣":13688,"혤":13689,"혩":13690,"혫":13691,"혬":13692,"혭":13693,"혯":13694,"혰":13695,"혱":13696,"혴":13697,"혵":13698,"호":13699,"혹":13700,"혼":13701,"혿":13702,"홀":13703,"홁":13704,"홅":13705,"홇":13706,"홈":13707,"홉":13708,"홋":13709,"홍":13710,"홐":13711,"홑":13712,"홒":13713,"화":13714,"확":13715,"환":13716,"홛":13717,"활":13718,"홢":13719,"홣":13720,"홤":13721,"홥":13722,"홧":13723,"황":13724,"홯":13725,"홰":13726,"홱":13727,"홴":13728,"홵":13729,"홷":13730,"홺":13731,"홽":13732,"횁":13733,"횃":13734,"횄":13735,"횅":13736,"회":13737,"획":13738,"횐":13739,"횔":13740,"횝":13741,"횟":13742,"횡":13743,"효":13744,"횩":13745,"횬":13746,"횰":13747,"횴":13748,"횸":13749,"횹":13750,"횺":13751,"횻":13752,"횽":13753,"횾":13754,"훀":13755,"후":13756,"훅":13757,"훈":13758,"훌":13759,"훍":13760,"훎":13761,"훑":13762,"훒":13763,"훓":13764,"훔":13765,"훕":13766,"훗":13767,"훘":13768,"훙":13769,"훝":13770,"훟":13771,"훠":13772,"훤":13773,"훦":13774,"훧":13775,"훨":13776,"훮":13777,"훰":13778,"훳":13779,"훵":13780,"훼":13781,"훽":13782,"훾":13783,"휀":13784,"휄":13785,"휆":13786,"휈":13787,"휏":13788,"휑":13789,"휕":13790,"휘":13791,"휙":13792,"휜":13793,"휠":13794,"휡":13795,"휨":13796,"휩":13797,"휫":13798,"휭":13799,"휲":13800,"휴":13801,"휵":13802,"휸":13803,"휺":13804,"휼":13805,"휿":13806,"흃":13807,"흄":13808,"흅":13809,"흇":13810,"흉":13811,"흏":13812,"흐":13813,"흑":13814,"흔":13815,"흖":13816,"흗":13817,"흘":13818,"흙":13819,"흚":13820,"흛":13821,"흜":13822,"흝":13823,"흟":13824,"흠":13825,"흡":13826,"흣":13827,"흥":13828,"흩":13829,"흫":13830,"희":13831,"흭":13832,"흮":13833,"흰":13834,"흴":13835,"흷":13836,"흸":13837,"흼":13838,"흽":13839,"흿":13840,"힁":13841,"히":13842,"힉":13843,"힋":13844,"힌":13845,"힐":13846,"힖":13847,"힘":13848,"힙":13849,"힚":13850,"힛":13851,"힜":13852,"힝":13853,"힞":13854,"힟":13855,"힢":13856,"힣":13857,"":13858,"":13859,"":13860,"":13861,"":13862,"":13863,"":13864,"":13865,"":13866,"":13867,"":13868,"":13869,"":13870,"":13871,"":13872,"":13873,"":13874,"":13875,"":13876,"":13877,"":13878,"":13879,"":13880,"":13881,"":13882,"":13883,"":13884,"":13885,"":13886,"":13887,"":13888,"":13889,"":13890,"":13891,"":13892,"":13893,"":13894,"":13895,"":13896,"":13897,"":13898,"":13899,"":13900,"":13901,"":13902,"":13903,"":13904,"":13905,"":13906,"":13907,"":13908,"":13909,"":13910,"":13911,"":13912,"":13913,"":13914,"":13915,"":13916,"":13917,"":13918,"":13919,"":13920,"":13921,"":13922,"":13923,"":13924,"":13925,"":13926,"":13927,"":13928,"":13929,"":13930,"":13931,"":13932,"":13933,"":13934,"":13935,"":13936,"":13937,"":13938,"":13939,"":13940,"":13941,"":13942,"":13943,"":13944,"":13945,"":13946,"":13947,"":13948,"":13949,"":13950,"":13951,"":13952,"":13953,"":13954,"":13955,"":13956,"":13957,"":13958,"":13959,"":13960,"":13961,"":13962,"":13963,"":13964,"":13965,"":13966,"":13967,"":13968,"":13969,"":13970,"":13971,"":13972,"":13973,"":13974,"":13975,"️":13976,"﻿":13977,"�":13978,"𐍐":13979,"𐍑":13980,"𐰆":13981,"𐰪":13982,"𐰸":13983,"𐱃":13984,"𛀁":13985,"🎚":13986,"💕":13987,"😞":13988,"🚜":13989,"🤓":13990,"𠅨":13991,"𡆮":13992,"𡐔":13993,"𡦗":13994,"𡪿":13995,"𡷗":13996,"𢒰":13997,"𢢜":13998,"𤂿":13999,"𤇜":14000,"𤉇":14001,"𤍅":14002,"𤦛":14003,"𤨒":14004,"𥖭":14005,"𧝀":14006,"𧟨":14007,"𧬪":14008,"𧺝":14009,"𨥭":14010,"𩃙":14011,"𩅦":14012,"𩡝":14013,"򰡔":14014,"򰡕":14015,"󰡐":14016,"󰡑":14017,"󰡒":14018,"󰡓":14019,"󰡔":14020,"󰡕":14021,"􋹲":14022,".\n":14023,"다.\n":14024,"▁이":14025,"▁있":14026,"으로":14027,"▁그":14028,"▁대":14029,"에서":14030,"▁사":14031,"▁수":14032,"▁것":14033,"▁지":14034,"▁1":14035,"▁한":14036,"했다.\n":14037,"▁전":14038,"▁가":14039,"▁기":14040,"▁아":14041,"▁하":14042,"▁2":14043,"▁시":14044,"▁정":14045,"▁보":14046,"▁자":14047,"▁등":14048,"하는":14049,"▁\"":14050,"▁경":14051,"이다.\n":14052,"▁주":14053,"▁나":14054,"▁일":14055,"▁다":14056,"▁인":14057,"하고":14058,"▁중":14059,"▁제":14060,"▁공":14061,"▁부":14062,"▁'":14063,"▁위":14064,"▁있다.\n":14065,"▁상":14066,"▁내":14067,"▁고":14068,"▁모":14069,"▁말":14070,"▁국":14071,"▁어":14072,"▁관":14073,"▁의":14074,"▁오":14075,"▁않":14076,"▁조":14077,"▁유":14078,"00":14079,"▁없":14080,"▁소":14081,"▁있는":14082,"▁여":14083,"▁선":14084,"▁비":14085,"▁3":14086,"▁마":14087,"▁해":14088,"▁때":14089,"다는":14090,"▁연":14091,"▁서":14092,"▁우":14093,"▁신":14094,"▁\n":14095,"이라":14096,"▁미":14097,"▁만":14098,"▁최":14099,"▁개":14100,"지만":14101,"었다.\n":14102,"▁발":14103,"▁예":14104,"▁안":14105,"▁생":14106,"니다.\n":14107,"들이":14108,"▁통":14109,"▁방":14110,"▁문":14111,"▁구":14112,"▁무":14113,"▁동":14114,"▁세":14115,"▁김":14116,"다고":14117,"▁거":14118,"▁강":14119,"에게":14120,"▁도":14121,"▁바":14122,"다\"":14123,"▁현":14124,"면서":14125,"▁영":14126,"▁성":14127,"▁“":14128,"까지":14129,"다.":14130,"▁실":14131,"▁진":14132,"▁결":14133,"적인":14134,"▁불":14135,"▁4":14136,"▁장":14137,"▁당":14138,"▁교":14139,"▁후":14140,"▁지난":14141,"▁분":14142,"▁‘":14143,"▁5":14144,"▁원":14145,"▁따":14146,"에는":14147,"▁스":14148,"▁반":14149,"부터":14150,"▁되":14151,"▁대한":14152,"▁또":14153,"▁재":14154,"▁노":14155,"▁받":14156,"적으로":14157,"▁계":14158,"하게":14159,"▁남":14160,"고,":14161,"▁특":14162,"▁같":14163,"▁감":14164,"▁차":14165,"▁더":14166,"들은":14167,"▁사람":14168,"▁박":14169,"▁추":14170,"▁올":14171,"▁들":14172,"▁것으로":14173,"▁매":14174,"▁출":14175,"..":14176,"▁알":14177,"▁많":14178,"▁입":14179,"들의":14180,"▁확":14181,"▁20":14182,"▁회":14183,"▁적":14184,"▁위해":14185,"▁것이":14186,"▁단":14187,"▁한국":14188,"▁열":14189,"▁과":14190,"하기":14191,"한다.\n":14192,"▁설":14193,"▁밝":14194,"▁6":14195,"▁두":14196,"▁때문":14197,"▁물":14198,"▁우리":14199,"▁못":14200,"▁역":14201,"▁아니":14202,"▁배":14203,"습니다.\n":14204,"▁건":14205,"▁새":14206,"▁할":14207,"▁학":14208,"▁저":14209,"▁달":14210,"▁행":14211,"▁작":14212,"다”":14213,"▁참":14214,"▁그러":14215,"▁말했다.\n":14216,"이라고":14217,"라고":14218,"▁포":14219,"▁금":14220,"▁앞":14221,"▁요":14222,"▁평":14223,"된다.\n":14224,"▁대해":14225,"▁외":14226,"▁함":14227,"▁직":14228,"\"\n":14229,"▁집":14230,"▁민":14231,"▁통해":14232,"▁투":14233,"였다.\n":14234,"▁7":14235,"▁하는":14236,"▁것이다.\n":14237,"았다.\n":14238,"▁10":14239,"▁파":14240,"기를":14241,"하지":14242,"▁프":14243,"▁점":14244,"▁서울":14245,"▁생각":14246,"요.\n":14247,"▁명":14248,"▁청":14249,"▁피":14250,"▁운":14251,"▁19":14252,"▁밝혔":14253,"다\"고":14254,"▁살":14255,"▁양":14256,"▁문제":14257,"▁증":14258,"자는":14259,"▁8":14260,"▁것은":14261,"▁게":14262,"▁했다.\n":14263,"라는":14264,"▁활":14265,"장은":14266,"▁화":14267,"리고":14268,"▁경우":14269,"▁함께":14270,"▁좋":14271,"▁초":14272,"?\n":14273,"▁판":14274,"에서는":14275,"▁높":14276,"▁필":14277,"▁밝혔다.\n":14278,"에도":14279,"▁및":14280,"▁총":14281,"들을":14282,"통령":14283,"됐다.\n":14284,"▁본":14285,"▁자신":14286,"▁미국":14287,"▁목":14288,"▁뒤":14289,"▁검":14290,"▁심":14291,"▁맞":14292,"▁같은":14293,"▁처":14294,"▁정부":14295,"▁변":14296,"으며":14297,"리는":14298,"▁속":14299,"▁임":14300,"▁들어":14301,"▁따라":14302,"이나":14303,"는데":14304,"▁대통령":14305,"▁산":14306,"▁데":14307,"▁9":14308,"▁201":14309,"보다":14310,"▁이어":14311,"▁삼":14312,"▁간":14313,"▁관계":14314,"▁했":14315,"▁손":14316,"▁종":14317,"사를":14318,"▁각":14319,"대로":14320,"리를":14321,"▁이번":14322,"▁네":14323,"장을":14324,"위원":14325,"▁법":14326,"▁돌":14327,"▁대표":14328,"▁그는":14329,"하여":14330,"▁지역":14331,"도록":14332,"▁이상":14333,"▁잘":14334,"▁200":14335,"지는":14336,"▁북":14337,"▁(":14338,"▁타":14339,"▁드":14340,"▁한다.\n":14341,"▁관련":14342,"되는":14343,"▁체":14344,"▁가능":14345,"▁눈":14346,"▁호":14347,"▁환":14348,"▁치":14349,"▁합":14350,"▁시작":14351,"▁후보":14352,"▁위한":14353,"▁광":14354,"▁다른":14355,"▁근":14356,"▁채":14357,"▁이날":14358,"▁음":14359,"▁아이":14360,"▁중국":14361,"▁때문에":14362,"하며":14363,"▁에":14364,"▁취":14365,"▁걸":14366,"서는":14367,"해야":14368,"▁표":14369,"▁세계":14370,"▁경기":14371,"졌다.\n":14372,"▁독":14373,"▁것을":14374,"▁언":14375,"▁그런":14376,"▁가장":14377,"▁업":14378,"▁사업":14379,"▁사실":14380,"▁그러나":14381,"▁등을":14382,"▁약":14383,"▁필요":14384,"▁크":14385,"▁찾":14386,"▁규":14387,"▁사회":14388,"▁있어":14389,"▁줄":14390,"하면":14391,"▁하나":14392,"▁하지만":14393,"이라는":14394,"억원":14395,"▁논":14396,"▁만들":14397,"▁형":14398,"▁일본":14399,"처럼":14400,"자가":14401,"▁누":14402,"성을":14403,"지를":14404,"▁협":14405,"다”고":14406,"▁경제":14407,"▁순":14408,"▁충":14409,"▁의원":14410,"▁창":14411,"▁이후":14412,"▁기업":14413,"▁담":14414,"▁번":14415,"장이":14416,"▁큰":14417,"▁있었":14418,"다면":14419,"▁리":14420,"▁승":14421,"▁모두":14422,"▁지원":14423,"기에":14424,"렇게":14425,"▁없는":14426,"▁책":14427,"력을":14428,"지고":14429,"▁프로":14430,"▁상황":14431,"▁하고":14432,"▁편":14433,"▁진행":14434,"▁복":14435,"▁넘":14436,"▁지난해":14437,"▁태":14438,"성이":14439,"▁이런":14440,"▁최근":14441,"▁사용":14442,"▁12":14443,"들에게":14444,"▁특히":14445,"▁지금":14446,"▁국민":14447,"▁절":14448,"▁않는":14449,"▁준":14450,"기업":14451,"▁힘":14452,"주의":14453,"▁국내":14454,"▁정도":14455,"▁날":14456,"하면서":14457,"은행":14458,"▁군":14459,"▁11":14460,"▁다시":14461,"▁갖":14462,"만원":14463,"▁된":14464,"뉴스":14465,"▁될":14466,"▁많은":14467,"▁교육":14468,"▁코":14469,"▁S":14470,"▁카":14471,"▁권":14472,"▁친":14473,"000":14474,"▁현재":14475,"...":14476,"정을":14477,"화를":14478,"▁얼":14479,"▁완":14480,"▁늘":14481,"기가":14482,"회의":14483,"▁아니라":14484,"▁벌":14485,"▁허":14486,"▁그리고":14487,"▁온":14488,"▁시간":14489,"▁설명":14490,"▁계획":14491,"하다.\n":14492,"리가":14493,"▁결과":14494,"니까":14495,"▁애":14496,"▁농":14497,"▁예정":14498,"▁정치":14499,"자의":14500,"스트":14501,"이고":14502,"▁모습":14503,"▁식":14504,"),":14505,"거나":14506,"▁\"\"":14507,"상을":14508,"지만,":14509,"다\"며":14510,"기도":14511,"비스":14512,"이는":14513,"로운":14514,"0년":14515,"▁올해":14516,"사가":14517,"▁국가":14518,"▁-":14519,"▁경찰":14520,"▁토":14521,"▁첫":14522,"▁있을":14523,"▁로":14524,"▁글":14525,"▁있었다.\n":14526,"사는":14527,"되고":14528,"시아":14529,"이었다.\n":14530,"다\n":14531,"▁메":14532,"▁이용":14533,"시간":14534,"레이":14535,"▁버":14536,"▁모든":14537,"▁야":14538,"▁끝":14539,"▁향":14540,"▁연구":14541,"가는":14542,"요.":14543,"▁민주":14544,"▁다양":14545,"▁느":14546,"▁나타":14547,"▁싶":14548,"▁질":14549,"학교":14550,"▁곳":14551,"▁[":14552,"으면":14553,"▁홍":14554,"▁접":14555,"▁폭":14556,"▁기록":14557,"▁시장":14558,"▁투자":14559,"▁라":14560,"운데":14561,"니다.":14562,"▁사이":14563,"▁측":14564,"▁다음":14565,"▁백":14566,"▁너":14567,"▁잡":14568,"다가":14569,"▁막":14570,"▁마음":14571,"▁K":14572,"사업":14573,"▁북한":14574,"기는":14575,"▁대상":14576,"▁항":14577,"▁천":14578,"르면":14579,"씨는":14580,"▁보고":14581,"▁전문":14582,"▁볼":14583,"▁길":14584,"▁운영":14585,"▁브":14586,"▁철":14587,"▁삼성":14588,"▁15":14589,"에서도":14590,"▁가운데":14591,"▁효":14592,"▁어떤":14593,"▁용":14594,"이었":14595,"▁축":14596,"▁내용":14597,"▁이유":14598,"▁이에":14599,"▁커":14600,"▁그래":14601,"▁한편":14602,"▁A":14603,"▁관계자는":14604,"▁많이":14605,"▁30":14606,"들과":14607,"▁기대":14608,"▁있다는":14609,"▁중요":14610,"▁이미":14611,"▁쓰":14612,"▁병":14613,"▁최고":14614,"▁발표":14615,"▁당시":14616,"▁방송":14617,"▁금융":14618,"▁떠":14619,"▁된다.\n":14620,"▁빠":14621,"했던":14622,"▁공개":14623,"▁등의":14624,"시장":14625,"▁제공":14626,"렸다.\n":14627,"▁알려":14628,"▁자신의":14629,"▁먹":14630,"자를":14631,"▁참여":14632,"하고,":14633,"▁추진":14634,"인이":14635,"위원회":14636,"▁선수":14637,"▁또한":14638,"▁학생":14639,"▁갈":14640,"▁다양한":14641,"하겠":14642,"사의":14643,"▁이야":14644,"▁몸":14645,"▁개발":14646,"▁감독":14647,"입니다.\n":14648,"식을":14649,"▁이를":14650,"▁나는":14651,"▁동안":14652,"▁평가":14653,"▁그것":14654,"▁따르면":14655,"▁처음":14656,"▁결정":14657,"▁디":14658,"▁급":14659,"▁존":14660,"▁베":14661,"으며,":14662,"왔다.\n":14663,"▁C":14664,"으나":14665,"▁조사":14666,"▁이제":14667,"해서":14668,"▁발생":14669,"▁오후":14670,"센터":14671,"▁않고":14672,"▁패":14673,"▁죽":14674,"▁돌아":14675,"▁L":14676,"▁않았":14677,"어나":14678,"▁여러":14679,"▁기자":14680,"기로":14681,"\"이라고":14682,"▁골":14683,"▁사진":14684,"▁문화":14685,"▁<":14686,"▁않은":14687,"동을":14688,"▁현대":14689,"▁사건":14690,"랜드":14691,"▁네.":14692,"▁잠":14693,"▁때문이다.\n":14694,"▁떨":14695,"▁의미":14696,"부는":14697,"▁정책":14698,"교육":14699,"▁새로운":14700,"▁트":14701,"▁기술":14702,"위를":14703,"도를":14704,"▁인터":14705,"▁영화":14706,"라도":14707,"원은":14708,"▁주장":14709,"▁몰":14710,"▁윤":14711,"▁마련":14712,"▁지적":14713,"경제":14714,"▁확인":14715,"머니":14716,"되어":14717,"▁전망":14718,"▁관심":14719,"▁등이":14720,"인의":14721,"▁18":14722,"▁직접":14723,"회를":14724,"▁국제":14725,"마트":14726,"▁극":14727,"▁수도":14728,"▁놓":14729,"▁요구":14730,"리아":14731,"▁받아":14732,"▁사랑":14733,"의를":14734,"그램":14735,"명을":14736,"명이":14737,"▁면":14738,"▁열린":14739,"▁포함":14740,"▁강조":14741,"▁바로":14742,"▁교수":14743,"▁판매":14744,"20":14745,"▁정보":14746,"▁이렇게":14747,"▁여성":14748,"▁어려":14749,"▁대학":14750,"▁범":14751,"다'":14752,"▁찾아":14753,"시키":14754,"▁계속":14755,"▁서비스":14756,"▁학교":14757,"▁없다.\n":14758,"▁M":14759,"▁어떻":14760,"\t\t":14761,"지역":14762,"▁돈":14763,"▁그렇":14764,"▁좋은":14765,"(1":14766,"▁그의":14767,"▁엄":14768,"났다.\n":14769,"▁전국":14770,"▁머":14771,"▁보여":14772,"치를":14773,"▁분석":14774,"▁황":14775,"이지":14776,"▁증가":14777,"점을":14778,"▁확대":14779,"▁13":14780,"했다고":14781,"▁제품":14782,"▁피해":14783,"▁난":14784,"주는":14785,"나라":14786,"▁16":14787,"원이":14788,"▁송":14789,"력이":14790,"▁예상":14791,"▁어떻게":14792,"▁낮":14793,"▁일부":14794,"며,":14795,"▁귀":14796,"▁중심":14797,"리에":14798,"▁경쟁":14799,"▁핵":14800,"제로":14801,"▁부산":14802,"▁만들어":14803,"▁월":14804,"▁보인":14805,"▁은":14806,"▁없이":14807,"▁내가":14808,"▁최대":14809,"원을":14810,"▁뿐":14811,"▁물론":14812,"▁좀":14813,"▁씨":14814,"▁별":14815,"▁검찰":14816,"▁울":14817,"▁성공":14818,"▁14":14819,"▁혐":14820,"▁있도록":14821,"▁시민":14822,"밖에":14823,"지가":14824,"▁과정":14825,"인은":14826,"다”며":14827,"안을":14828,"▁되는":14829,"르는":14830,")는":14831,"▁기준":14832,"▁역시":14833,"▁오는":14834,"▁전체":14835,"▁침":14836,"▁아닌":14837,"▁얻":14838,"▁상태":14839,"전을":14840,"▁수준":14841,"금을":14842,"▁떨어":14843,"▁더욱":14844,"▁희":14845,"▁준비":14846,"기관":14847,"▁구성":14848,"▁영향":14849,"▁악":14850,"▁왜":14851,"대표":14852,"장의":14853,"▁100":14854,"이라며":14855,"▁공동":14856,"▁있다고":14857,"▁예.":14858,"0%":14859,"대를":14860,"▁나오":14861,"▁오전":14862,"▁맡":14863,"▁오늘":14864,"원의":14865,"▁아무":14866,"연구":14867,"▁그녀":14868,"▁예정이다.\n":14869,"▁뜻":14870,"▁생산":14871,"장에서":14872,"▁드러":14873,"▁인간":14874,"▁테":14875,")의":14876,"▁너무":14877,"▁뭐":14878,"er":14879,"▁환경":14880,"치는":14881,"음을":14882,"▁규모":14883,"▁강화":14884,"in":14885,"냈다.\n":14886,"▁터":14887,"▁휴":14888,"on":14889,"시에":14890,"가지":14891,"업체":14892,"선을":14893,"▁0":14894,"▁일반":14895,"세를":14896,"▁이름":14897,"이스":14898,"▁가격":14899,"이트":14900,"▁선거":14901,"제를":14902,"▁고객":14903,"▁높은":14904,"▁프로그램":14905,"▁부분":14906,"▁이러":14907,"▁팀":14908,"▁방법":14909,"▁것도":14910,"누리":14911,"문화":14912,"▁17":14913,"리스":14914,"▁지방":14915,"명의":14916,"▁풀":14917,"▁주민":14918,"▁상승":14919,"▁밀":14920,"▁먼":14921,"\"\"":14922,"▁생활":14923,"▁않았다.\n":14924,"수를":14925,"동안":14926,"▁추가":14927,"정부":14928,"▁혼":14929,"인을":14930,"지도":14931,"하려":14932,"▁만큼":14933,"산업":14934,"▁즉":14935,"▁소비":14936,"▁듯":14937,"▁폐":14938,"자로":14939,"▁외국":14940,"▁방문":14941,"▁얘":14942,"▁I":14943,"▁둘":14944,"▁어느":14945,"임을":14946,"▁키":14947,"▁▲":14948,"▁왕":14949,"▁와":14950,"▁25":14951,"▁설명했다.\n":14952,"시는":14953,"도로":14954,"▁그래서":14955,"▁비롯":14956,"▁중앙":14957,"▁해외":14958,"▁사람이":14959,"▁응":14960,"▁작품":14961,"▁육":14962,"사에":14963,"다\"\"":14964,"▁탈":14965,"▁성장":14966,"▁국회":14967,"▁홈":14968,"▁며":14969,"▁가지":14970,"▁받고":14971,"▁보면":14972,"도가":14973,"▁아직":14974,"▁자기":14975,"▁활동":14976,"▁역할":14977,"▁가족":14978,"▁주요":14979,"▁효과":14980,"드는":14981,"▁산업":14982,"▁페":14983,"▁무엇":14984,"▁지속":14985,"▁레":14986,"▁:":14987,"스템":14988,"'을":14989,"▁끌":14990,"부분":14991,"나는":14992,"▁사고":14993,"사회":14994,"▁결국":14995,"어서":14996,"없이":14997,"▁특별":14998,"▁즐":14999,"▁삶":15000,"▁이해":15001,"▁이는":15002,"▁크게":15003,"▁,":15004,"개월":15005,"▁개인":15006,"▁배우":15007,".\"\n":15008,"▁탄":15009,"누리당":15010,"▁기존":15011,"▁팔":15012,"▁자유":15013,"감을":15014,"▁조선":15015,"▁펼":15016,"▁뛰":15017,"(2":15018,")이":15019,"▁하지":15020,"▁활용":15021,"동차":15022,"▁앞으로":15023,"▁있습니다.\n":15024,"▁플":15025,"수가":15026,"▁대구":15027,"이가":15028,"▁일이":15029,"▁몇":15030,"2년":15031,"▁웃":15032,"▁참석":15033,"▁않을":15034,"▁이러한":15035,"부를":15036,"▁그런데":15037,"들도":15038,"▁노동":15039,"▁긴":15040,"▁199":15041,"과의":15042,"▁실시":15043,"근혜":15044,"권을":15045,"▁풍":15046,"▁유지":15047,"▁클":15048,"물을":15049,"스타":15050,"되지":15051,"▁쉽":15052,"▁앞서":15053,"▁T":15054,"▁적극":15055,"▁또는":15056,"죠.\n":15057,"▁인천":15058,"▁해당":15059,"▁놀":15060,"스로":15061,"▁안전":15062,"장,":15063,"8년":15064,"움을":15065,"정한":15066,"▁등에":15067,"장에":15068,"▁숨":15069,"▁해결":15070,"대의":15071,"▁판단":15072,"▁P":15073,"5년":15074,"▁자연":15075,"단체":15076,"스는":15077,"료를":15078,"▁어린":15079,"▁말을":15080,"▁도시":15081,"▁우려":15082,")을":15083,"7년":15084,"▁B":15085,"1일":15086,")를":15087,"”\n":15088,"▁전했다.\n":15089,"▁관리":15090,"▁자체":15091,")가":15092,"▁미래":15093,"인데":15094,"관리":15095,"▁민주당":15096,"▁됐":15097,"▁개선":15098,"▁없었":15099,"▁정상":15100,"▁적용":15101,"▁존재":15102,"1년":15103,"3년":15104,"자들이":15105,"그룹":15106,"정보":15107,"▁새누리당":15108,"▁그렇게":15109,")\n":15110,"▁집중":15111,"▁압":15112,"파트":15113,"▁얼마":15114,"문을":15115,"스를":15116,"한다는":15117,"▁돼":15118,"국의":15119,"일보":15120,"전히":15121,"▁광주":15122,"▁스타":15123,"마다":15124,"전에":15125,"▁뉴스":15126,"'를":15127,"▁경영":15128,"▁24":15129,"▁분야":15130,"기술":15131,"대에":15132,"는데,":15133,"▁혐의":15134,"▁대부분":15135,"▁싸":15136,")은":15137,"라며":15138,"▁스마트":15139,"▁지나":15140,"▁받은":15141,"상이":15142,"개발":15143,"정이":15144,"▁\"이":15145,"▁=":15146,"▁나라":15147,"는다.\n":15148,"▁대선":15149,"▁비판":15150,"▁건강":15151,"가를":15152,"▁같이":15153,"▁상대":15154,"서를":15155,"시설":15156,"▁인정":15157,"▁기간":15158,"▁현실":15159,"▁고려":15160,"계를":15161,"▁인터넷":15162,"로부터":15163,"▁답":15164,"▁먼저":15165,"▁만나":15166,"▁선택":15167,"▁이뤄":15168,"▁시즌":15169,"습니다.":15170,"▁대비":15171,"▁얼굴":15172,"사와":15173,"▁건설":15174,"로벌":15175,"▁따른":15176,"▁위원":15177,"4년":15178,"▁이루":15179,"▁목표":15180,"▁구조":15181,"▁개최":15182,"▁상품":15183,"▁의견":15184,"▁능":15185,"금융":15186,"▁보인다.\n":15187,"이를":15188,"▁올라":15189,"co":15190,"▁부담":15191,"▁보도":15192,"▁조직":15193,"▁언론":15194,"an":15195,"▁인사":15196,"”이라고":15197,"▁국정":15198,"▁내려":15199,"진다.\n":15200,"▁캐":15201,"▁살아":15202,"6년":15203,"9년":15204,"자인":15205,"▁확보":15206,"▁꿈":15207,"수는":15208,"▁각각":15209,"▁하루":15210,"▁경험":15211,"▁장관":15212,")에":15213,"▁\"그":15214,"지원":15215,"▁나온":15216,"느냐":15217,"▁설치":15218,"▁자리":15219,"▁내년":15220,"▁표현":15221,"▁봉":15222,"▁기능":15223,"▁선정":15224,"부가":15225,"했습니다.\n":15226,"▁발견":15227,"▁제주":15228,"▁계획이다.\n":15229,"▁친구":15230,"와의":15231,"▁공격":15232,"▁출연":15233,"라인":15234,"지막":15235,"▁변화":15236,"▁대상으로":15237,"▁됐다.\n":15238,"▁뉴":15239,"▁매출":15240,"▁업무":15241,"케이":15242,"일부터":15243,"디어":15244,"도의":15245,"▁깨":15246,"▁발전":15247,"지,":15248,"▁영업":15249,"▁갖고":15250,"▁유럽":15251,"'\n":15252,"▁붙":15253,"▁`":15254,"BS":15255,"적이":15256,"▁상당":15257,"▁아버":15258,"▁중요한":15259,"▁지난달":15260,"지에":15261,"▁석":15262,"▁결혼":15263,"정책":15264,"en":15265,"▁모습을":15266,"롯데":15267,"증권":15268,"▁제작":15269,"▁등으로":15270,"▁22":15271,"하기로":15272,"므로":15273,"한국":15274,".1":15275,"▁23":15276,"▁박근혜":15277,"▁노력":15278,"▁여기":15279,"▁제기":15280,"▁방식":15281,"▁전략":15282,"투자":15283,"라이":15284,"인가":15285,"▁해야":15286,"?\"\n":15287,"원에":15288,"▁논란":15289,"갔다.\n":15290,"▁못한":15291,"▁가지고":15292,"▁서로":15293,"▁밤":15294,"서울":15295,"▁않아":15296,"하였다.\n":15297,"▁콘":15298,"▁제시":15299,"!\n":15300,"전자":15301,"장과":15302,"▁누구":15303,"▁강조했다.\n":15304,"가가":15305,"▁나서":15306,"약을":15307,"▁마지막":15308,"▁을":15309,"▁관광":15310,"▁문제가":15311,"어난":15312,"▁있다":15313,"▁정신":15314,"▁없어":15315,"▁중소":15316,"▁책임":15317,".5":15318,"▁덧":15319,"▁과거":15320,"▁한다는":15321,"▁만에":15322,"▁차지":15323,"▁업체":15324,"▁믿":15325,"보고":15326,"▁견":15327,"▁6월":15328,"▁의원은":15329,"포츠":15330,"▁알고":15331,"▁있는데":15332,"달러":15333,"환경":15334,"자들의":15335,"상의":15336,"▁거래":15337,"▁헤":15338,"▁좋아":15339,"연합":15340,"▁흔":15341,"▁수익":15342,"요?\n":15343,"▁이것":15344,"▁반응":15345,"▁품":15346,"트를":15347,"▁겨":15348,"▁청와":15349,"▁읽":15350,"리그":15351,"민주":15352,"▁꾸":15353,"▁블":15354,"성과":15355,"라마":15356,"▁녹":15357,"▁시행":15358,"원에서":15359,"▁쪽":15360,"▁역사":15361,"▁것\"이라고":15362,"▁수출":15363,"일까지":15364,"▁글로벌":15365,"▁N":15366,"▁가능성이":15367,"▁선보":15368,"==":15369,"▁우선":15370,"▁움":15371,"▁격":15372,"씨가":15373,"도는":15374,"조사":15375,"▁반면":15376,"(3":15377,"거리":15378,"▁공연":15379,"▁되어":15380,"▁출신":15381,"▁이야기":15382,"소를":15383,"▁하면":15384,"업을":15385,"▁주변":15386,"년간":15387,"스의":15388,"▁도입":15389,"▁공급":15390,"로서":15391,"대회":15392,"내는":15393,"▁바람":15394,"▁게임":15395,"대가":15396,"▁깊":15397,"경기":15398,"▁예산":15399,"로는":15400,"▁조성":15401,"▁러":15402,"▁논의":15403,"▁하락":15404,"으로써":15405,"림픽":15406,"▁출시":15407,"훈련":15408,"▁넘어":15409,"▁대신":15410,"▁덧붙":15411,"▁있던":15412,"▁수사":15413,"▁말이":15414,"하자":15415,"▁정말":15416,"▁50":15417,"▁F":15418,"▁헌":15419,"▁곧":15420,"▁조금":15421,"▁아파트":15422,"▁어렵":15423,"르고":15424,"▁착":15425,"위에":15426,"▁이와":15427,"▁듣":15428,"도시":15429,"▁평균":15430,"▁26":15431,"▁롯데":15432,"▁27":15433,"▁음악":15434,"▁선발":15435,"▁없었다.\n":15436,"▁흐":15437,"▁있고":15438,"▁여자":15439,"스가":15440,"했다는":15441,"▁사람들이":15442,"한다고":15443,"쳤다.\n":15444,"했고,":15445,"▁은행":15446,"리지":15447,"▁전문가":15448,"▁기본":15449,"▁28":15450,"▁△":15451,"대한":15452,"▁신청":15453,"▁회사":15454,"'의":15455,"제가":15456,"▁지도":15457,"▁어디":15458,"▁3월":15459,"▁행사":15460,"▁분위":15461,"▁일을":15462,"or":15463,"▁G":15464,"▁알려졌다.\n":15465,"▁벗":15466,"▁그가":15467,"▁매우":15468,"학생":15469,"리의":15470,"거래":15471,"▁우리가":15472,"▁참가":15473,"▁핵심":15474,"▁통합":15475,"치고":15476,"▁보였다.\n":15477,".2":15478,"이며":15479,"▁좌":15480,"스럽":15481,"▁주택":15482,"▁4월":15483,"▁퇴":15484,"▁목소":15485,"▁어~":15486,"▁공식":15487,"너지":15488,"▁있게":15489,"▁필요한":15490,"더라도":15491,"하던":15492,"들에":15493,"▁는":15494,"▁땅":15495,"▁우리는":15496,"▁소속":15497,"▁아시아":15498,"정은":15499,"▁스스로":15500,"▁관한":15501,"▁따라서":15502,"▁5월":15503,"▁직원":15504,"▁촉":15505,"▁번째":15506,"생활":15507,"구를":15508,"통신":15509,"▁제대로":15510,"▁암":15511,"스러":15512,"▁7월":15513,"▁의혹":15514,"분기":15515,"▁E":15516,"▁SK":15517,"동산":15518,"회가":15519,"▁LG":15520,"▁사람은":15521,"관계":15522,"▁아니다.\n":15523,"▁지지":15524,"기의":15525,"▁이동":15526,"▁자동차":15527,"▁가까":15528,"▁D":15529,"▁정부가":15530,"▁혁":15531,"▁위험":15532,"▁퍼":15533,"개를":15534,"▁역할을":15535,"▁행정":15536,"▁낙":15537,"두고":15538,"인지":15539,"려고":15540,"비를":15541,"하도록":15542,"▁브랜드":15543,"▁부족":15544,"▁보험":15545,"201":15546,"했지만":15547,"이란":15548,"▁움직":15549,"▁만든":15550,"▁있기":15551,"--":15552,"장으로":15553,"▁사무":15554,"ti":15555,"▁두고":15556,"▁징":15557,"▁9월":15558,"▁주목":15559,"▁문제를":15560,"보다는":15561,"ar":15562,"부의":15563,"▁당신":15564,"'에":15565,"바일":15566,"상에":15567,"되었":15568,"자들은":15569,"하거나":15570,"BC":15571,"위는":15572,"▁대응":15573,"▁과정에서":15574,"행을":15575,"▁빨":15576,".co":15577,"▁진출":15578,"▁갑":15579,"▁잔":15580,"촬영":15581,"▁대형":15582,"있는":15583,"▁술":15584,"al":15585,"겠다는":15586,"▁영향을":15587,"▁시스템":15588,"▁우승":15589,"소년":15590,"운동":15591,"▁최초":15592,"▁검토":15593,"지지":15594,"▁그동안":15595,"경찰":15596,"대는":15597,"하다는":15598,"▁전달":15599,"▁본격":15600,"르게":15601,"▁대회":15602,"▁비교":15603,"▁독일":15604,"▁기관":15605,"▁대통령은":15606,"성은":15607,"움이":15608,"▁영국":15609,"어야":15610,"▁사실을":15611,"서도":15612,"▁어머니":15613,"▁맛":15614,"했다.":15615,"▁달리":15616,"▁안정":15617,"▁반대":15618,"이기":15619,"사진":15620,"지의":15621,"▁거의":15622,"▁1년":15623,"원으로":15624,".3":15625,"드를":15626,"▁방침":15627,"▁각종":15628,"수의":15629,"▁소개":15630,"▁정도로":15631,"만큼":15632,"▁덧붙였다.\n":15633,"▁40":15634,"▁캠":15635,"하였":15636,"▁공간":15637,"▁대해서는":15638,"▁8월":15639,"리로":15640,"▁공공":15641,"▁왔":15642,"▁차량":15643,"▁프랑":15644,"이터":15645,"▁팬":15646,"식이":15647,"일(":15648,"▁실제":15649,"▁겪":15650,"▁있지만":15651,"되었다.\n":15652,"▁29":15653,"보험":15654,"▁지급":15655,"히려":15656,"▁최종":15657,"▁위치":15658,"▁넣":15659,"▁혹":15660,"과학":15661,"▁젊":15662,"도,":15663,"▁행복":15664,"▁감소":15665,"세계":15666,"▁동시에":15667,"▁보는":15668,"▁반영":15669,"▁있다\"고":15670,"▁합의":15671,"(4":15672,"▁그대로":15673,"▁남자":15674,"▁자신이":15675,"▁보호":15676,"▁불법":15677,"원,":15678,"기간":15679,"▁12월":15680,"어요.\n":15681,"▁10월":15682,"▁엔":15683,"10":15684,"▁비해":15685,"▁전통":15686,"▁가진":15687,"고를":15688,"물이":15689,"▁대통령이":15690,"보는":15691,"▁빈":15692,"화가":15693,"▁나가":15694,"대학":15695,"▁감사":15696,"▁수밖에":15697,"으니":15698,"▁대표는":15699,"적을":15700,"(5":15701,"부에":15702,"▁되었":15703,"섰다.\n":15704,"▁중심으로":15705,"▁알아":15706,"▁재판":15707,"30":15708,"▁해서":15709,"▁찬":15710,"랐다.\n":15711,"어진":15712,"▁협력":15713,"▁부모":15714,"▁를":15715,"시켜":15716,"▁워":15717,"▁불가":15718,"건설":15719,"▁구체":15720,"▁운동":15721,"▁충분":15722,"오는":15723,"▁희망":15724,"성에":15725,"▁오히려":15726,"▁정부의":15727,"자,":15728,"▁이들은":15729,"▁1월":15730,"'는":15731,"▁가입":15732,"▁구축":15733,"▁얘기":15734,"▁빼":15735,"▁우리나라":15736,"방송":15737,"▁숙":15738,"▁빌":15739,"이어":15740,"▁류":15741,"스터":15742,"▁되고":15743,"▁컨":15744,"▁기다":15745,"▁딸":15746,"반기":15747,"▁작은":15748,"▁분명":15749,"▁전해":15750,"▁것이라고":15751,"▁이전":15752,"▁묻":15753,"▁의해":15754,"▁전쟁":15755,"▁보내":15756,"▁높아":15757,"▁시청":15758,"▁전에":15759,"▁노래":15760,"하기도":15761,"▁스마트폰":15762,"▁등장":15763,"▁수가":15764,"▁모델":15765,"▁해도":15766,"정에":15767,"▁흥":15768,"▁연결":15769,"단을":15770,"▁못하고":15771,"▁연속":15772,"으로는":15773,"▁받았":15774,"▁불구":15775,"▁납":15776,"▁망":15777,"▁발언":15778,"사,":15779,"▁순간":15780,"롭게":15781,"▁관심을":15782,"▁남북":15783,"▁이라고":15784,"▁인해":15785,"프로":15786,"치가":15787,"▁요청":15788,"\"이라며":15789,"심을":15790,"▁속에서":15791,"▁이끌":15792,"합니다.\n":15793,"▁제외":15794,"위가":15795,"과를":15796,"▁대한민":15797,"사로":15798,"▁종합":15799,"자와":15800,"선거":15801,"▁때는":15802,"▁앉":15803,"▁정부는":15804,"세가":15805,"▁기억":15806,"▁받았다.\n":15807,"▁옮":15808,"규모":15809,"▁형태":15810,"▁루":15811,"▁욕":15812,"자리":15813,"주택":15814,"▁슬":15815,"펀드":15816,"되면서":15817,"▁계약":15818,"▁궁":15819,"▁잃":15820,"▁부동산":15821,"등학교":15822,"▁촬영":15823,"▁전환":15824,"▁다만":15825,"▁방향":15826,"▁당선":15827,"차를":15828,"▁정확":15829,"▁오른":15830,"▁수요":15831,"▁대통령의":15832,"▁198":15833,"▁모바일":15834,"회는":15835,"▁비용":15836,"▁끊":15837,"▁잘못":15838,"지로":15839,"▁과학":15840,"▁보유":15841,"▁설립":15842,"▁수입":15843,"했고":15844,"▁회복":15845,"▁기획":15846,"▁졸":15847,"되면":15848,"이익":15849,"▁대책":15850,"▁언제":15851,"▁사례":15852,"▁관련해":15853,"인트":15854,"▁주는":15855,"▁달라":15856,"▁경남":15857,"▁주식":15858,"▁사망":15859,"▁전혀":15860,"▁아주":15861,"▁인수":15862,"▁점을":15863,"▁외교":15864,"다\"\"고":15865,"▁처리":15866,"▁사회적":15867,"is":15868,"▁2월":15869,"▁솔":15870,"이자":15871,"스코":15872,"',":15873,"19":15874,"▁받을":15875,"▁속에":15876,"디오":15877,"했을":15878,"▁지켜":15879,"▁티":15880,"▁대변":15881,")과":15882,"▁의료":15883,"▁중인":15884,"▁유명":15885,"’을":15886,"격을":15887,"로,":15888,"▁혜":15889,"▁바라":15890,"▁드라마":15891,"으로서":15892,"▁이들":15893,"50":15894,"▁않는다.\n":15895,"실을":15896,"▁받는":15897,"에선":15898,".4":15899,"▁고용":15900,"▁마을":15901,"▁얼마나":15902,"더니":15903,"▁잇":15904,"▁대출":15905,"본부":15906,"▁구속":15907,"▁시절":15908,"계획":15909,"▁흘":15910,"▁홍보":15911,"었던":15912,"▁슈":15913,"▁말씀":15914,"▁회의":15915,"▁되었다.\n":15916,"▁나타났다.\n":15917,")와":15918,"▁청와대":15919,"▁파악":15920,"▁염":15921,"▁중소기업":15922,"▁치료":15923,"점이":15924,"길을":15925,"▁기념":15926,"▁스포츠":15927,"▁어려운":15928,"▁통한":15929,"▁개정":15930,"하다":15931,"스크":15932,"성화":15933,"구가":15934,"▁민간":15935,"▁보다":15936,"▁아름":15937,"으로부터":15938,"▁거쳐":15939,"▁있고,":15940,"▁여행":15941,"▁여전히":15942,"같이":15943,"▁선생":15944,"──":15945,"▁11월":15946,"▁그림":15947,"▁지적했다.\n":15948,"품을":15949,"▁가져":15950,"▁내놓":15951,"우는":15952,"▁제1":15953,"▁제한":15954,"신문":15955,"▁장애":15956,"개의":15957,"이에":15958,"▁체험":15959,"운드":15960,"▁젊은":15961,"▁불과":15962,"성의":15963,"▁있다.":15964,"는지":15965,"하다고":15966,"시가":15967,"▁그때":15968,"어들":15969,"까?\n":15970,"자에게":15971,"es":15972,"▁어린이":15973,"과는":15974,"▁아래":15975,"▁러시아":15976,"▁멀":15977,"상은":15978,"량을":15979,"율이":15980,"▁교통":15981,"▁덕":15982,"▁시설":15983,"정의":15984,"▁입장":15985,"▁아~":15986,"▁한번":15987,"▁던":15988,"▁고민":15989,".7":15990,"통합":15991,"수록":15992,"▁쉽게":15993,"▁힘들":15994,"▁제가":15995,"▁찍":15996,"복지":15997,"▁못했다.\n":15998,"▁미국의":15999,"건을":16000,"▁되면":16001,"▁돈을":16002,"▁장기":16003,"▁질문":16004,"▁놓고":16005,"▁꼭":16006,"기,":16007,"재인":16008,"일을":16009,"▁이야기를":16010,"▁전시":16011,"▁담당":16012,"아가":16013,"서비스":16014,"▁부정":16015,"▁앞두고":16016,".6":16017,"▁대화":16018,"만이":16019,"▁섬":16020,"회사":16021,"▁우수":16022,"▁차례":16023,"▁남편":16024,"려는":16025,"무원":16026,"’를":16027,"▁단체":16028,"▁언급":16029,".8":16030,"만을":16031,"▁측은":16032,"▁주장했다.\n":16033,"▁약속":16034,"으면서":16035,"'이":16036,"▁예술":16037,"▁억":16038,"▁온라인":16039,"가의":16040,"▁가는":16041,"하지만":16042,"▁행동":16043,"같은":16044,"▁작업":16045,"▁무슨":16046,"▁것”이라고":16047,"▁나와":16048,"▁외국인":16049,"▁주인":16050,"드시":16051,"▁후보는":16052,"▁확정":16053,"▁경찰은":16054,"▁강력":16055,"▁분양":16056,"▁제출":16057,"▁그룹":16058,"감이":16059,"▁정당":16060,"▁대전":16061,"▁것이라는":16062,"▁엄마":16063,"▁재정":16064,"자에":16065,"▁내용을":16066,"분을":16067,"▁꼽":16068,"▁쇼":16069,"▁봐":16070,"%로":16071,"▁2년":16072,"▁들어가":16073,"▁원내":16074,"도에":16075,"▁방안":16076,"으로,":16077,"다\"면서":16078,"▁걱":16079,"▁그리":16080,"▁최소":16081,"▁비슷":16082,"▁인식":16083,"억원을":16084,"공사":16085,"▁푸":16086,"▁사라":16087,"▁색":16088,"지방":16089,"▁향후":16090,"▁훈련":16091,"▁현장":16092,"▁실제로":16093,"▁연기":16094,"활동":16095,"▁맞아":16096,"▁기반":16097,"▁위해서는":16098,"▁중단":16099,"▁단순":16100,"▁꽃":16101,"▁기초":16102,"▁문학":16103,"시키는":16104,"▁없다는":16105,"겼다.\n":16106,"▁힘을":16107,"구의":16108,"자기":16109,"▁인근":16110,"▁없을":16111,"에서의":16112,"▁가슴":16113,"회담":16114,"t;":16115,"관을":16116,"씨의":16117,"▁신고":16118,"▁위해서":16119,"▁경기도":16120,"국민":16121,"관이":16122,"중앙":16123,"다운":16124,"▁코스":16125,"▁빛":16126,"▁있으며,":16127,"▁비롯해":16128,"▁2010년":16129,"주고":16130,"▁남아":16131,"▁TV":16132,"▁광고":16133,"정치":16134,"▁수상":16135,"▁변호":16136,"▁상황에서":16137,"▁마음을":16138,"였던":16139,"▁이른":16140,"▁한다고":16141,"산을":16142,"▁애플":16143,"하는데":16144,"▁그것은":16145,"우리":16146,"▁불안":16147,"▁택":16148,"시의":16149,"카드":16150,"▁입장을":16151,"TV":16152,"▁갈등":16153,"관은":16154,"▁혐의로":16155,"▁셈":16156,".9":16157,"▁위반":16158,"▁청년":16159,"th":16160,"▁시간이":16161,"소득":16162,"▁제안":16163,"▁쉬":16164,"▁짓":16165,"▁이사":16166,"▁21":16167,"▁감독은":16168,"▁밝혀":16169,"▁현지":16170,"▁것처럼":16171,"▁단계":16172,"▁신규":16173,"함을":16174,"단은":16175,"▁울산":16176,"▁\"아":16177,"다'고":16178,"▁수행":16179,"▁컴":16180,"▁내부":16181,"경을":16182,"▁아내":16183,"▁냉":16184,"▁지하":16185,"▁달러":16186,"신을":16187,"▁이상의":16188,"▁느끼":16189,"▁옆":16190,"량이":16191,"0년대":16192,"▁맥":16193,"▁전반":16194,"▁교수는":16195,"▁안에":16196,"▁히":16197,"▁대중":16198,"▁익":16199,"▁모르":16200,"▁보니":16201,"없는":16202,"le":16203,"▁것에":16204,"▁느낌":16205,"▁상대로":16206,"▁실패":16207,"▁이하":16208,"▁제조":16209,"▁이곳":16210,"▁사태":16211,"협회":16212,"▁유통":16213,"▁뜨":16214,"▁둘러":16215,"지면서":16216,"분이":16217,"▁인터뷰":16218,"위로":16219,"▁해석":16220,"평가":16221,"▁소설":16222,"잖아":16223,"▁년":16224,"▁시작했다.\n":16225,"▁칼":16226,"▁반드시":16227,"▁수는":16228,"발전":16229,"무를":16230,"▁사는":16231,"리와":16232,"▁둔":16233,"▁있었던":16234,"웠다.\n":16235,"▁일으":16236,"명은":16237,"▁늦":16238,"안전":16239,"▁아침":16240,"▁지정":16241,"기와":16242,"▁쌓":16243,"번째":16244,"제는":16245,"▁전자":16246,"이다.":16247,"▁1만":16248,"▁끼":16249,"▁“이":16250,"▁프리":16251,"▁있지":16252,"어를":16253,"▁틀":16254,"▁않다.\n":16255,"▁여름":16256,"▁근로":16257,"간의":16258,"▁부문":16259,"▁구매":16260,"’는":16261,"▁쏟":16262,"▁대한민국":16263,"▁불러":16264,"▁지금까지":16265,"00만원":16266,"만의":16267,"▁제2":16268,"▁있어서":16269,"▁등록":16270,"프트":16271,")로":16272,"금이":16273,"▁프랑스":16274,"무리":16275,"▁라고":16276,"▁국회의":16277,"세대":16278,"▁인물":16279,"-1":16280,"▁증권":16281,"▁적이":16282,"▁마찬":16283,"시켰":16284,"▁신뢰":16285,"▁이벤":16286,"리기":16287,"▁시간을":16288,"(이":16289,"▁사람들은":16290,"어도":16291,"법을":16292,"시스":16293,"▁오래":16294,"▁가능한":16295,"업계":16296,"▁나선":16297,"론을":16298,"▁유치":16299,"▁특징":16300,"회에서":16301,"'은":16302,"▁평화":16303,"▁21일":16304,"구조":16305,"일이":16306,"다며":16307,"▁반응을":16308,"▁전남":16309,"텐츠":16310,"▁사람의":16311,"▁바탕":16312,"▁넓":16313,".\"":16314,"지와":16315,"▁3년":16316,"케팅":16317,"▁강남":16318,"▁12일":16319,"▁밖":16320,"전문":16321,"▁국방":16322,"▁같다.\n":16323,"▁중이다.\n":16324,"▁마찬가지":16325,"대책":16326,"▁자본":16327,"▁필요가":16328,"▁강원":16329,"겠다고":16330,"▁투표":16331,"▁등은":16332,"▁2011년":16333,"단이":16334,"▁문제는":16335,"▁인도":16336,"까.\n":16337,"▁정권":16338,"?\"":16339,"▁업계":16340,"별로":16341,"▁통과":16342,"▁공정":16343,"레스":16344,"▁자료":16345,"당이":16346,"수로":16347,"하라":16348,"청은":16349,"▁체결":16350,"▁독립":16351,")에서":16352,"노동":16353,"▁살펴":16354,"에게는":16355,"▁3일":16356,"시간)":16357,"▁것과":16358,"▁심각":16359,"▁종목":16360,"화된":16361,"▁신용":16362,"단의":16363,"리,":16364,"▁소득":16365,"시킨":16366,"었다.":16367,"만에":16368,"인과":16369,"진은":16370,"▁하여":16371,"▁옷":16372,"면을":16373,"'로":16374,"▁청소년":16375,"▁인상":16376,"▁음식":16377,"▁시각":16378,"▁뽑":16379,"스러운":16380,"어가":16381,"학과":16382,"적이고":16383,"▁20일":16384,"▁처음으로":16385,"▁대체":16386,"주가":16387,"'가":16388,"▁나를":16389,"▁있으며":16390,"▁H":16391,"▁이익":16392,"▁생각이":16393,"▁신문":16394,"▁곡":16395,"증을":16396,"▁뒷":16397,"▁개념":16398,"▁R":16399,"▁사상":16400,"제의":16401,"아야":16402,"린다.\n":16403,"학년":16404,"▁접근":16405,"불어":16406,"▁되지":16407,"리카":16408,"위의":16409,"구나":16410,"▁2차":16411,"▁보이":16412,"km":16413,"▁문재인":16414,"▁5일":16415,"▁생각을":16416,"▁작년":16417,"▁통신":16418,"▁점에서":16419,"국이":16420,"▁원칙":16421,"▁서울시":16422,"▁쓴":16423,"▁O":16424,"라면":16425,"▁죄":16426,"한테":16427,"체를":16428,"▁회장":16429,"▁하면서":16430,"이라도":16431,"▁뇌":16432,"▁우리의":16433,"주를":16434,"원과":16435,"...\n":16436,"▁한편,":16437,"▁휘":16438,"점으로":16439,"▁통일":16440,"▁싶은":16441,"▁건물":16442,"▁노조":16443,"▁출발":16444,"%를":16445,"조선":16446,"사고":16447,"▁범죄":16448,"▁축구":16449,"▁지키":16450,"▁15일":16451,"▁만드는":16452,"이드":16453,"▁이유로":16454,"▁국민의":16455,"▁하기":16456,"▁60":16457,"▁10일":16458,"▁탐":16459,"▁전망이다.\n":16460,"영화":16461,"00만":16462,"▁나누":16463,"▁비롯한":16464,"▁전기":16465,"하며,":16466,"▁사업을":16467,"철수":16468,"회에":16469,"▁빠져":16470,"▁주로":16471,"거든":16472,"▁그녀는":16473,"▁옥":16474,"경영":16475,"▁1일":16476,"▁주도":16477,"보를":16478,"▁앞에서":16479,"%,":16480,"▁떠나":16481,"▁다르":16482,"▁타고":16483,"▁모양":16484,"▁관심이":16485,"▁그냥":16486,"▁하늘":16487,"국은":16488,"▁주고":16489,"▁투입":16490,"▁인생":16491,"▁거부":16492,"▁안타":16493,"내고":16494,"▁활동을":16495,"▁에너지":16496,"▁비중":16497,"▁전화":16498,"▁실적":16499,"▁사실상":16500,"▁한다":16501,"▁조정":16502,"마을":16503,"▁더불어":16504,"스럽게":16505,"관광":16506,"▁최고의":16507,"하려는":16508,"▁자녀":16509,"▁개혁":16510,"▁맺":16511,"▁손을":16512,"▁니":16513,"▁있다”고":16514,"▁시험":16515,"▁소재":16516,"▁예방":16517,"주시":16518,"▁선언":16519,"▁판결":16520,"▁근거":16521,"▁도로":16522,"▁도전":16523,"▁/":16524,"멤버":16525,"▁이루어":16526,"▁자리를":16527,"▁쿠":16528,"▁이르":16529,"▁저는":16530,"▁명의":16531,"전에서":16532,"당은":16533,"진을":16534,"▁14일":16535,"▁11일":16536,"율을":16537,"▁7일":16538,"요.\"\n":16539,"▁2008년":16540,"▁뮤":16541,"▁합니다.\n":16542,"▁졸업":16543,"소가":16544,"▁민족":16545,"▁하는데":16546,"▁시도":16547,"▁보이는":16548,"▁의견을":16549,"▁못하는":16550,"▁휴대":16551,"▁강한":16552,"▁보이고":16553,"▁지식":16554,"\t\t\t\t":16555,"ew":16556,"▁벌어":16557,"▁겁":16558,".k":16559,"▁대기업":16560,"이의":16561,".0":16562,"▁재미":16563,"성,":16564,"▁옛":16565,"▁펼쳐":16566,"함으로써":16567,"▁마무리":16568,"점에서":16569,"중에":16570,"▁마치":16571,"▁근무":16572,"다른":16573,"다,":16574,"▁눈에":16575,"▁늘어":16576,"비가":16577,"▁아마":16578,"▁결과를":16579,"조차":16580,"▁일어나":16581,"▁까":16582,"씨를":16583,"▁엘":16584,"▁소송":16585,"▁혁신":16586,"▁여론":16587,"▁의사":16588,"명박":16589,"▁소유":16590,"▁사람을":16591,"나무":16592,"률이":16593,"인으로":16594,"▁무료":16595,"▁전날":16596,"구는":16597,"▁뉴욕":16598,"▁하나의":16599,"습니까":16600,"▁6일":16601,"사에서":16602,"스,":16603,"▁회장은":16604,"▁경우가":16605,"거운":16606,"▁마이":16607,"하겠다는":16608,"▁가치":16609,"▁197":16610,"▁복지":16611,"ww":16612,"님이":16613,"▁지배":16614,"▁형성":16615,"▁괴":16616,"▁제도":16617,"▁긍":16618,"▁촉구":16619,"▁2012년":16620,"▁경북":16621,"▁북한의":16622,"선수":16623,"▁앞에":16624,"▁13일":16625,"00여":16626,"▁벤":16627,"데이":16628,"시스템":16629,"▁방안을":16630,"국제":16631,"시를":16632,"▁열어":16633,"▁이름을":16634,"▁8일":16635,"았던":16636,"▁c":16637,"▁혜택":16638,"차례":16639,"▁씨는":16640,"▁그~":16641,"▁꺼":16642,"워크":16643,"리한":16644,"역을":16645,"▁취업":16646,"▁뿌":16647,"트는":16648,"▁U":16649,"▁도움이":16650,"re":16651,"이며,":16652,"▁올림픽":16653,"▁정보를":16654,"▁홈페":16655,"명으로":16656,"▁서비스를":16657,"▁인한":16658,"▁바이":16659,"부와":16660,"\"라고":16661,"해도":16662,"상으로":16663,"▁많아":16664,"▁않으면":16665,"▁혈":16666,"▁4일":16667,"받은":16668,"입니다.":16669,"▁22일":16670,"▁건축":16671,"▁출전":16672,"▁자주":16673,"▁측면":16674,"▁규정":16675,"▁훨":16676,"▁허용":16677,"현지":16678,"▁군사":16679,"(6":16680,"▁했던":16681,"해를":16682,"규직":16683,"▁빚":16684,"▁2009년":16685,"▁활성화":16686,"▁시대":16687,"▁있다\"며":16688,"▁나의":16689,"니스":16690,"▁&":16691,"▁KT":16692,"▁선물":16693,"▁법률":16694,"질을":16695,"명,":16696,"리며":16697,"▁MBC":16698,"▁써":16699,"▁열리는":16700,"▁끌어":16701,"▁겨울":16702,"아이":16703,"▁한국의":16704,"%)":16705,"▁자세":16706,"인들이":16707,"성장":16708,"▁회원":16709,"기고":16710,"▁사이에":16711,"▁이달":16712,"▁가정":16713,"▁9일":16714,"▁액":16715,".kr":16716,"▁유일":16717,"▁멤버":16718,"▁훨씬":16719,"▁16일":16720,"▁국토":16721,"▁기록했다.\n":16722,"▁매일":16723,"▁만족":16724,"▁일단":16725,"'라는":16726,"▁프로젝":16727,"한다":16728,"드컵":16729,"▁여기에":16730,"▁다가":16731,"항공":16732,"당의":16733,"▁많다.\n":16734,"▁보수":16735,"▁한다\"고":16736,"해진":16737,".com":16738,"문학":16739,"▁자금":16740,"▁토론":16741,"력과":16742,"이,":16743,"리즈":16744,"화에":16745,"▁것이다.":16746,"▁들고":16747,"▁25일":16748,"▁23일":16749,"▁이유는":16750,"▁자신을":16751,"▁고통":16752,"▁혹은":16753,"▁그를":16754,"소에":16755,"▁겸":16756,"▁밑":16757,"니아":16758,"▁불구하고":16759,"▁나왔다.\n":16760,"▁기회를":16761,"▁협의":16762,"▁모습이":16763,"▁추천":16764,"대학교":16765,"▁정치적":16766,"▁하겠":16767,"▁낸":16768,"▁전년":16769,"▁채권":16770,"반도":16771,"▁수술":16772,"▁작용":16773,"체가":16774,"▁쓸":16775,"분의":16776,"체육":16777,"라.\n":16778,"▁라이":16779,"했으나":16780,"선이":16781,"▁위에":16782,"▁몸을":16783,"후보":16784,"▁눈길을":16785,"▁봤":16786,"▁브라":16787,"▁항공":16788,"안이":16789,"▁19일":16790,"▁호텔":16791,"▁국무":16792,"▁바꾸":16793,"(C":16794,"▁걸쳐":16795,"▁쏟아":16796,"▁아들":16797,"▁당연":16798,"▁후보가":16799,"이라면":16800,"====":16801,"tion":16802,"기자":16803,"▁묘":16804,"it":16805,"▁조건":16806,"공단":16807,"▁인기":16808,"▁나무":16809,"군의":16810,"▁든":16811,"▁포기":16812,"▁차별":16813,"▁혼자":16814,"▁메이":16815,"▁흑":16816,"▁예비":16817,",000":16818,"종합":16819,"▁나머":16820,"▁2일":16821,"진이":16822,"가고":16823,"티즌":16824,"▁말한다.\n":16825,"▁17일":16826,"▁26일":16827,"▁위협":16828,"▁밝히":16829,"▁확산":16830,"▁24일":16831,"▁점검":16832,"▁27일":16833,"▁자산":16834,"”이라며":16835,"▁영어":16836,"▁채용":16837,"▁28일":16838,"▁마케팅":16839,"▁나타나":16840,"▁18일":16841,"▁그들은":16842,"▁레이":16843,"공항":16844,"▁스트":16845,"▁있겠":16846,"▁확실":16847,"▁챙":16848,"’의":16849,"보면":16850,"(S":16851,"▁보장":16852,"▁상황을":16853,"▁가르":16854,"▁여야":16855,"▁주인공":16856,"▁금지":16857,"▁맨":16858,"기준":16859,"감독":16860,"▁잊":16861,"▁긍정":16862,"▁작가":16863,"▁일정":16864,"▁다니":16865,"▁소리":16866,"▁낮은":16867,"▁원내대표":16868,"▁1차":16869,"텔레":16870,"▁후반":16871,"▁맞는":16872,"▁아프":16873,"▁창업":16874,"▁그럼":16875,"▁바탕으로":16876,"페인":16877,"게임":16878,"▁Y":16879,"▁실천":16880,"at":16881,"협의":16882,"▁절대":16883,"ent":16884,"▁카드":16885,"▁특정":16886,"부모":16887,"▁상황이":16888,"▁10년":16889,"▁달성":16890,"▁소통":16891,"병원":16892,"안에":16893,"▁걱정":16894,"러스":16895,"▁요즘":16896,"바마":16897,"님의":16898,"▁영상":16899,"▁사전":16900,"▁가수":16901,"준다.\n":16902,"▁싱":16903,"▁선고":16904,"전략":16905,"▁똑":16906,"▁의한":16907,"▁매년":16908,"▁이탈":16909,"요일":16910,"호를":16911,"형을":16912,"▁방침이다.\n":16913,"▁계열":16914,"▁수용":16915,"▁부인":16916,"▁하고,":16917,"▁매각":16918,"▁길을":16919,"▁탓":16920,"제품":16921,"문이":16922,"▁사실이":16923,"▁홀":16924,"▁검찰은":16925,"명에":16926,"율은":16927,"자금":16928,"▁굴":16929,"▁대답":16930,"▁기여":16931,"우고":16932,"▁철저":16933,"▁흔들":16934,"▁학습":16935,"에만":16936,"▁세종":16937,"▁갑자기":16938,"려면":16939,"▁꾸준":16940,"▁벽":16941,"▁갔":16942,"올림픽":16943,"면서도":16944,"아시아":16945,"▁사진을":16946,"▁런":16947,"▁동일":16948,"▁비난":16949,"한다면":16950,"▁굳":16951,"실에서":16952,"예술":16953,"▁이명박":16954,"▁2007년":16955,"▁다소":16956,"대,":16957,"▁바뀌":16958,"▁맞춰":16959,"▁그것을":16960,"▁반발":16961,"▁공부":16962,"권의":16963,"-2":16964,"▁아울":16965,"▁창출":16966,"▁눈을":16967,"ic":16968,"▁30일":16969,"재를":16970,"▁걷":16971,"력은":16972,"▁털":16973,"▁나온다.\n":16974,"화의":16975,"이션":16976,"▁남성":16977,"▁나오는":16978,"이면":16979,"▁언어":16980,"....":16981,"했다":16982,"▁세월":16983,"전이":16984,"▁할인":16985,"▁J":16986,"▁왔다.\n":16987,"▁국립":16988,"▁하며":16989,"▁관객":16990,"▁향해":16991,"상품":16992,"자들에게":16993,"▁헌법":16994,"▁항상":16995,"▁W":16996,"el":16997,"▁네티즌":16998,"▁기소":16999,"▁디자인":17000,"18":17001,"▁2013년":17002,"▁중에":17003,"▁변경":17004,"un":17005,"세기":17006,"심히":17007,"만으로":17008,"▁새로":17009,"차가":17010,"퓨터":17011,"자산":17012,"▁벗어나":17013,"▁짧":17014,"▁사람들":17015,"위터":17016,"▁바다":17017,"▁삼성전자":17018,"하나":17019,"력의":17020,"▁넘는":17021,"▁것입니다.\n":17022,"▁꼬":17023,"지털":17024,"화점":17025,"종의":17026,"▁대해서":17027,"▁저녁":17028,"당한":17029,"▁없다고":17030,"▁완전히":17031,"▁이게":17032,"조합":17033,"▁창조":17034,"계가":17035,"▁봄":17036,"▁구입":17037,"자들":17038,"▁나섰다.\n":17039,"구에":17040,"▁골프":17041,"▁추정":17042,"▁셈이다.\n":17043,"▁집행":17044,"’에":17045,"▁대규모":17046,"소는":17047,"제도":17048,"▁대법":17049,"▁충분히":17050,"이었던":17051,"▁그리스":17052,"시킬":17053,"▁같아":17054,"▁모른":17055,"서관":17056,"야.":17057,"트로":17058,"금은":17059,"▁29일":17060,"되기":17061,"▁타이":17062,"▁자랑":17063,"'에서":17064,"▁p":17065,"▁관련된":17066,"▁규모의":17067,"15":17068,"▁종교":17069,"▁연출":17070,"▁불편":17071,"▁콘텐츠":17072,"▁앉아":17073,"조정":17074,"'으로":17075,"시민":17076,"▁1천":17077,"군은":17078,"▁5년":17079,"▁공유":17080,"▁수석":17081,"야구":17082,"▁단일":17083,"▁흐름":17084,"체의":17085,"▁보통":17086,"식에":17087,"▁■":17088,"▁특수":17089,"▁객":17090,"▁말해":17091,"▁중국의":17092,"▁습":17093,"▁글을":17094,"▁화장":17095,"자치":17096,"▁열고":17097,"▁연장":17098,"▁공무원":17099,"▁십":17100,"포인트":17101,"▁일자리":17102,"치지":17103,"▁케":17104,"▁그들의":17105,"▁상담":17106,"..\n":17107,"▁밥":17108,"▁음~":17109,"▁누가":17110,"▁KBS":17111,"▁득":17112,"▁상징":17113,"보호":17114,"▁뜻을":17115,"▁쌍":17116,"플레이":17117,"▁획":17118,"▁탑":17119,"성도":17120,"▁전력":17121,"▁빨리":17122,"자들을":17123,"▁아니냐":17124,"▁나왔":17125,"▁끝에":17126,"스와":17127,"▁규제":17128,"▁아울러":17129,"▁의무":17130,"▁만한":17131,"▁실현":17132,"▁출범":17133,"▁이처럼":17134,"만원을":17135,"가족":17136,"▁정리":17137,"▁1000":17138,"트워크":17139,"▁일은":17140,"1)":17141,"▁한나라":17142,"지게":17143,"▁오바마":17144,"▁기업의":17145,"부장":17146,"는가":17147,"40":17148,"▁의원이":17149,"▁라는":17150,"▁주말":17151,"대에서":17152,"▁듣고":17153,"과정":17154,"▁경우에는":17155,"▁출마":17156,"메라":17157,"많은":17158,"▁전북":17159,"▁케이":17160,"▁만난":17161,"▁들여":17162,"ing":17163,"'이라는":17164,"▁이승":17165,"▁미디어":17166,"분에":17167,"로를":17168,"▁발행":17169,"▁짐":17170,"▁잡아":17171,"단계":17172,"▁이번에":17173,"▁도착":17174,"▁그것이":17175,"일(현지":17176,"▁일본의":17177,"▁연구원은":17178,"▁1위":17179,"화는":17180,"▁단지":17181,"▁외부":17182,"목을":17183,"▁비상":17184,"▁인제":17185,"유의":17186,"▁하게":17187,"하우":17188,"’\n":17189,"▁성과":17190,"적이다.\n":17191,"자.\n":17192,"기지":17193,"▁배경":17194,"률을":17195,"▁지속적으로":17196,"닷컴":17197,"▁정의":17198,"뮤니":17199,"▁▶":17200,"▁감안":17201,"▁굉":17202,"이고,":17203,"계약":17204,"▁이란":17205,"12":17206,"----":17207,"식품":17208,"▁공감":17209,"받는":17210,"메달":17211,"▁기울":17212,"▁안철수":17213,"까지는":17214,"▁시작한":17215,"▁책을":17216,"▁배치":17217,"▁균":17218,"▁신경":17219,"\"고":17220,"▁증거":17221,"호는":17222,"se":17223,"▁베이":17224,"ews":17225,"▁부여":17226,"▁연예":17227,"스(":17228,"▁처벌":17229,"▁받아들":17230,"▁메시":17231,"▁생각해":17232,"선의":17233,"승을":17234,"협력":17235,"▁김영":17236,"▁그린":17237,"▁보기":17238,"▁하이":17239,"▁진짜":17240,"▁중앙일보":17241,"격이":17242,"자동차":17243,"▁원하는":17244,"~2":17245,"▁IT":17246,"렀다.\n":17247,"▁작성":17248,"▁임대":17249,"▁수원":17250,"비는":17251,"▁인간의":17252,"▁전면":17253,"▁f":17254,"든지":17255,"비용":17256,"▁것이었다.\n":17257,"▁잠시":17258,"다\"\"며":17259,"▁보도했다.\n":17260,"표를":17261,"개혁":17262,"▁교과":17263,"▁책임을":17264,"지구":17265,"중한":17266,"항을":17267,"점에":17268,"▁과정을":17269,"말로":17270,"▁거듭":17271,"▁취임":17272,"▁삼성전":17273,"▁절반":17274,"세요":17275,"(I":17276,"▁통화":17277,"▁뛰어":17278,"▁대해서도":17279,"▁비슷한":17280,"▁삶을":17281,"교통":17282,"▁장면":17283,"프라":17284,"▁늘어나":17285,"▁집단":17286,"생을":17287,"▁달려":17288,"▁홈페이지":17289,"▁만약":17290,"연을":17291,"▁방식으로":17292,"▁최초로":17293,"주년":17294,"▁명예":17295,"서에":17296,"▁곤":17297,"▁바란":17298,"됩니다.\n":17299,"동의":17300,"▁극복":17301,"▁데뷔":17302,"서울=":17303,"계의":17304,"▁첨":17305,"▁있어야":17306,"방을":17307,"▁완성":17308,"▁끝나":17309,"인다.\n":17310,"▁가능하다.\n":17311,"▁굉장":17312,"▁오랜":17313,"▁사과":17314,"스토":17315,"%에":17316,"▁반복":17317,"받고":17318,"▁\"지":17319,"▁뿐만":17320,"▁놀라":17321,"수수":17322,"▁재산":17323,"조를":17324,"▁효과를":17325,"▁청구":17326,"습니":17327,"▁수도권":17328,"▁낳":17329,"▁연간":17330,"음이":17331,"국가":17332,"지면":17333,"▁콜":17334,"▁보건":17335,"제에":17336,"이지만":17337,"▁이용해":17338,"절한":17339,"▁때,":17340,"▁전용":17341,"▁다음과":17342,"▁밝힌":17343,"▁196":17344,"▁짜":17345,"▁흡":17346,"▁트위터":17347,"▁마음이":17348,"▁그녀의":17349,"바이":17350,"했다\"고":17351,"▁가득":17352,"▁조합":17353,"▁불가능":17354,"▁좋겠":17355,"▁논란이":17356,"상에서":17357,"▁현대차":17358,"간에":17359,"▁데이터":17360,"릭터":17361,"▁있다면":17362,"▁삶의":17363,"▁지원을":17364,"▁미리":17365,"▁선진":17366,"▁열심히":17367,"▁상호":17368,"▁인권":17369,"▁제3":17370,"▁◇":17371,"▁펀드":17372,"지기":17373,"▁모집":17374,"▁공모":17375,"다'는":17376,"▁공사":17377,"화와":17378,"▁찾는":17379,"▁조치":17380,"▁혐의를":17381,"▁나머지":17382,"▁입주":17383,"관에서":17384,"대출":17385,"▁설계":17386,"▁효율":17387,"서가":17388,"일리":17389,"▁내세":17390,"▁문을":17391,"▁류현":17392,"당을":17393,"조건":17394,"▁최저":17395,"놓고":17396,"▁대로":17397,"리오":17398,"▁비밀":17399,"▁포함한":17400,"▁발표했다.\n":17401,"▁것.\n":17402,"인들의":17403,"▁느껴":17404,"장애":17405,"했으며":17406,"트가":17407,"안타":17408,"▁컴퓨터":17409,"사랑":17410,"▁발표한":17411,"▁새벽":17412,"점은":17413,"▁연계":17414,"주로":17415,"하이":17416,"군이":17417,"▁왼":17418,"▁발생한":17419,"·중":17420,"이기도":17421,"la":17422,"▁1,":17423,"▁2014년":17424,"▁의심":17425,"ch":17426,"▁나오고":17427,"▁근데":17428,"께서":17429,"▁35":17430,"▁아름다운":17431,"했으며,":17432,"▁깊은":17433,"보니":17434,"▁평소":17435,"물의":17436,"▁파이":17437,"시오":17438,"▁폴":17439,"▁때마다":17440,"뿐만":17441,"▁가서":17442,".co.kr":17443,"▁지금은":17444,"▁기능을":17445,"▁직후":17446,"▁그게":17447,"▁철학":17448,"액은":17449,"▁무엇보다":17450,"▁민주통합":17451,"마저":17452,"▁모아":17453,"▁맹":17454,"▁경기를":17455,"▁자아":17456,"명과":17457,"가에":17458,"(M":17459,"▁캐릭터":17460,"▁갖추":17461,"부,":17462,"et":17463,"▁앱":17464,"▁등에서":17465,"▁앨":17466,"액을":17467,"▁운전":17468,"기록":17469,"▁공천":17470,"위원장":17471,"▁실질":17472,"▁진보":17473,"▁쳐":17474,"하겠다고":17475,"▁때까지":17476,"▁성폭":17477,"▁70":17478,"▁지역의":17479,"▁강력한":17480,"단지":17481,"(19":17482,"▁명이":17483,"▁충남":17484,"▁리더":17485,"시대":17486,"▁태양":17487,"▁폭발":17488,"▁적극적으로":17489,"▁그러면":17490,"▁북한이":17491,"'이라고":17492,"11":17493,"▁진술":17494,"트의":17495,"▁특허":17496,"류를":17497,"▁들었":17498,"▁31일":17499,"60":17500,"▁기준으로":17501,"%가":17502,"등급":17503,"피언":17504,"▁플레이":17505,"▁편의":17506,"▁이재":17507,"▁굉장히":17508,"들로":17509,"st":17510,"▁의미를":17511,"시고":17512,"▁사장":17513,"▁긴급":17514,"뉴시스":17515,"▁이내":17516,"▁받지":17517,"▁도움을":17518,"조직":17519,"▁있으면":17520,"▁척":17521,"하고자":17522,"도와":17523,"▁이때":17524,"▁관광객":17525,"▁밖에":17526,"▁돕":17527,"신이":17528,"▁목적":17529,"다니":17530,"부문":17531,"▁김정":17532,"▁해소":17533,"▁웨":17534,"▁검사":17535,"▁말고":17536,"▁덜":17537,"▁여기서":17538,"▁의식":17539,"션을":17540,"▁교체":17541,"명한":17542,"▁직장":17543,"만한":17544,"▁인하":17545,"▁.":17546,"사인":17547,"연금":17548,"▁상위":17549,"직원":17550,"▁못해":17551,"▁빅":17552,"▁이것은":17553,"▁동반":17554,"바로":17555,"▁거예":17556,"▁아버지":17557,"정으로":17558,"▁개막":17559,"▁발사":17560,"▁3개":17561,"연구소":17562,"코리아":17563,"리적":17564,"챔피언":17565,"▁올랐다.\n":17566,"수,":17567,"▁승리":17568,"▁자체가":17569,"▁정기":17570,"▁멋":17571,"화,":17572,"▁가까운":17573,"▁축소":17574,"▁싫":17575,"▁런던":17576,"권이":17577,"회장":17578,"▁예상된다.\n":17579,"▁영업이익":17580,"▁지구":17581,"▁엄청":17582,"▁완벽":17583,"▁관계를":17584,"▁갤":17585,"▁돌려":17586,"▁개성":17587,"▁등과":17588,"▁해양":17589,"▁오픈":17590,"▁이들의":17591,"▁일어":17592,"▁초반":17593,"진의":17594,"▁아니면":17595,"▁없고":17596,"▁안에서":17597,"▁소방":17598,"▁대표팀":17599,"영은":17600,"▁영역":17601,"▁경찰에":17602,"으나,":17603,"▁조사를":17604,"▁디지털":17605,"네.":17606,"락을":17607,"▁그러니까":17608,"ig":17609,"공업":17610,"나가":17611,"▁소비자":17612,"키로":17613,"▁오르":17614,"▁예를":17615,"했기":17616,"▁위기":17617,"▁SBS":17618,"▁구체적인":17619,"▁머물":17620,"▁했지만":17621,"▁고위":17622,").":17623,"▁프로그램을":17624,"시켰다.\n":17625,"▁있었다.":17626,"▁전해졌다.\n":17627,"▁전개":17628,"▁제일":17629,"▁쉽지":17630,"▁공약":17631,"▁결승":17632,"▁주의":17633,"▁사람들의":17634,"▁입을":17635,"▁'이":17636,"히는":17637,"▁임금":17638,"▁아닐":17639,"력에":17640,"듯이":17641,"요,":17642,"▁개입":17643,"식으로":17644,"▁고개를":17645,"▁커피":17646,"▁것\"이라며":17647,"▁커뮤니":17648,"▁대변인은":17649,"▁유엔":17650,"▁뉴스\n":17651,"전의":17652,"질이":17653,"▁집에":17654,"▁2015년":17655,"(A":17656,"▁있지만,":17657,"▁빠른":17658,"▁딱":17659,"서의":17660,"▁말하는":17661,"안은":17662,"▁V":17663,"상과":17664,"▁떨어진":17665,"▁않겠":17666,"▁【":17667,"▁제품을":17668,"▁넥":17669,"▁제목":17670,"▁프리미":17671,"▁수많은":17672,"호가":17673,"파크":17674,"▁초청":17675,"기획":17676,"▁지자":17677,"시티":17678,"▁나갈":17679,"▁물러":17680,"▁모여":17681,"▁누리":17682,"▁페이스":17683,"▁잇따":17684,"▁특별한":17685,"▁자동":17686,"어요.":17687,"▁새롭게":17688,"▁상처":17689,"구역":17690,"단에":17691,"NS":17692,"스에":17693,"이로":17694,"▁수수":17695,"선에":17696,"▁떠올":17697,"▁있으":17698,"▁희생":17699,"▁이정":17700,"▁진입":17701,"▁아닌가":17702,"르크":17703,"▁결코":17704,"째,":17705,"▁살고":17706,"▁칠":17707,"▁올려":17708,"▁쓰는":17709,"▁썼":17710,"▁임시":17711,"▁두산":17712,"활동을":17713,"들어":17714,"▁위치한":17715,"드로":17716,"▁가을":17717,"했는데":17718,"▁동의":17719,"▁그려":17720,"▁인기를":17721,"▁4년":17722,"아버":17723,"어로":17724,"▁복귀":17725,"사람":17726,"▁보이지":17727,"▁깜":17728,"심이":17729,"세로":17730,"▁회담":17731,"▁차원에서":17732,"▁아동":17733,"▁담은":17734,"석을":17735,"▁성적":17736,"▁주문":17737,"북한":17738,"▁평가를":17739,"해양":17740,"\",":17741,"시키고":17742,"▁훌":17743,"▁초기":17744,"운영":17745,"사건":17746,"▁비정":17747,"봤다.\n":17748,"겠습니다.\n":17749,"▁부진":17750,"▁홈런":17751,"ed":17752,"의원":17753,"▁동료":17754,"인,":17755,"▁당부":17756,"재가":17757,"트남":17758,"▁멈":17759,"류의":17760,"il":17761,"om":17762,"▁자리에서":17763,"▁이들이":17764,"▁거기":17765,"24":17766,"비아":17767,"▁이른바":17768,"▁취득":17769,"드리":17770,"▁김성":17771,"▁하다.\n":17772,"▁패션":17773,"진흥":17774,"▁원래":17775,"▁효과가":17776,"▁야구":17777,"▁4대":17778,"▁돌파":17779,"▁서울대":17780,"▁대표적인":17781,"▁체계":17782,"시즌":17783,"요?":17784,"▁봉사":17785,"축구":17786,"▁병원":17787,"▁경향":17788,"▁하반기":17789,"▁주제로":17790,"▁가로":17791,"▁그러면서":17792,"▁압박":17793,"▁가능성을":17794,"▁남은":17795,"▁못할":17796,"▁사랑을":17797,"▁사퇴":17798,"라운드":17799,"판을":17800,"해주":17801,"▁할머니":17802,"▁참석한":17803,"가구":17804,"▁먹고":17805,"금리":17806,"▁웹":17807,"▁정확한":17808,"▁나올":17809,"▁미술":17810,"식은":17811,"▁옮겨":17812,"사들이":17813,"25":17814,"▁좋다.\n":17815,"범죄":17816,"▁상장":17817,"주민":17818,"티브":17819,"▁동물":17820,"내가":17821,"공원":17822,"▁입고":17823,"▁임명":17824,"▁융":17825,"▁예측":17826,"어버":17827,"▁차이가":17828,"▁관람":17829,"널리":17830,"▁식품":17831,"▁가까이":17832,"▁아쉬":17833,"▁발굴":17834,"TA":17835,"▁꾸준히":17836,"일(현지시간)":17837,"▁지시":17838,"▁샤":17839,"자원":17840,"억원의":17841,"기구":17842,"연합뉴스":17843,"사일":17844,"▁점점":17845,"수도":17846,"▁도와":17847,"▁1조":17848,"▁고양":17849,"▁삭":17850,"▁생태":17851,"▁않도록":17852,"▁과연":17853,"노조":17854,"인데,":17855,"▁무역":17856,"▁근본":17857,"▁이틀":17858,"▁뭔":17859,"▁수비":17860,"대상":17861,"미를":17862,"▁돌아가":17863,"▁직업":17864,"▁피해를":17865,"▁캠프":17866,"m2":17867,"▁카메라":17868,"무현":17869,"▁위로":17870,"▁월드컵":17871,"▁이로":17872,"▁탁":17873,"▁활약":17874,"▁내용이":17875,"▁궁금":17876,"▁안보":17877,"(7":17878,"▁노출":17879,"▁응답":17880,"견을":17881,"▁아무리":17882,"시,":17883,"ou":17884,"고는":17885,"오늘":17886,"▁계획을":17887,"▁총선":17888,"▁횡":17889,"▁여부를":17890,"▁심사":17891,"다\"라고":17892,"받아":17893,"▁행위":17894,"속도로":17895,"▁개의":17896,"▁흘러":17897,"▁아는":17898,"▁신설":17899,"연구원":17900,"▁이외":17901,"수사":17902,"▁에서":17903,"▁끈":17904,"▁여의":17905,"ht":17906,"’,":17907,"(F":17908,"▁안내":17909,"▁이탈리아":17910,"▁그랬":17911,"▁4개":17912,"망을":17913,"▁수립":17914,"▁이론":17915,"▁곳이":17916,"▁그만":17917,"80":17918,"▁동원":17919,"석이":17920,"▁금리":17921,"▁대우":17922,"산물":17923,"다\"는":17924,"다면,":17925,"액이":17926,"▁치열":17927,"▁기자]":17928,"가로":17929,"▁생각한":17930,"▁재무":17931,"▁당초":17932,"▁이벤트":17933,"▁것인가":17934,"▁생명":17935,"▁유리":17936,"▁시는":17937,"▁대북":17938,"▁노력을":17939,"▁문제에":17940,"am":17941,"▁그래도":17942,"▁선임":17943,"▁단독":17944,"▁현금":17945,"▁1억":17946,"미국":17947,"▁화려":17948,"▁내다":17949,"▁상상":17950,"▁정책을":17951,"▁상대적으로":17952,"▁한화":17953,"배를":17954,"▁사건을":17955,"▁기사":17956,"▁전투":17957,"▁국정원":17958,"▁흉":17959,"▁소녀":17960,"▁학부모":17961,"재단":17962,"▁기부":17963,"▁알게":17964,"상황":17965,"▁아빠":17966,"력으로":17967,"▁이같이":17968,"▁권한":17969,"▁것\"":17970,"▁노인":17971,"쪽으로":17972,"▁센":17973,"▁씨가":17974,"▁나눠":17975,"▁유도":17976,"▁발휘":17977,"져야":17978,"결과":17979,"▁방송된":17980,"▁실험":17981,"사무":17982,"▁부탁":17983,"죠.":17984,"▁2006년":17985,"▁힘든":17986,"뉴시스】":17987,"▁표시":17988,"▁모르는":17989,"▁그럴":17990,"법인":17991,"▁없다":17992,"▁얼굴을":17993,"단한":17994,"▁\t\t\t\t":17995,"▁관측":17996,"▁적은":17997,"▁방법을":17998,"▁주거":17999,"▁자율":18000,"▁성과를":18001,"함이":18002,"▁머리":18003,"▁다음달":18004,"▁거주":18005,"▁매입":18006,"일본":18007,"피스":18008,"▁1인":18009,"제한":18010,"▁칭":18011,"되며":18012,"▁마감":18013,"▁갖춘":18014,"권에":18015,"gt;":18016,"lt;":18017,"▁두려":18018,"▁위하여":18019,"사한":18020,"▁따뜻":18021,"법에":18022,"이사":18023,"▁헬":18024,"▁크리스":18025,"▁점이":18026,"해온":18027,"~3":18028,"&gt;":18029,"하면서도":18030,"▁선두":18031,"▁설정":18032,"▁추구":18033,"줬다.\n":18034,"▁개편":18035,"상,":18036,"’은":18037,"▁나도":18038,"▁이제는":18039,"서,":18040,"적으로는":18041,"▁중간":18042,"▁친환경":18043,"▁띄":18044,"스티":18045,"훼손":18046,"▁이슈":18047,"▁김종":18048,"▁이웃":18049,"▁장관은":18050,"▁슈퍼":18051,"지어":18052,"▁후보의":18053,"와는":18054,"하려고":18055,"%),":18056,"▁누구나":18057,"▁부과":18058,"부터는":18059,"▁채택":18060,"국을":18061,"▁부르":18062,"▁\"어":18063,"▁개별":18064,"▁부처":18065,"▁어깨":18066,"럼프":18067,"▁저희":18068,"지에서":18069,"▁사장은":18070,"▁있다”며":18071,"케이션":18072,"란드":18073,"▁제공하는":18074,"▁생긴":18075,")씨":18076,"▁자살":18077,"▁2만":18078,"▁주관":18079,"▁묵":18080,"▁한반도":18081,"했지만,":18082,"▁5개":18083,"다시":18084,"▁강제":18085,"▁결합":18086,"▁기술을":18087,"▁낭":18088,"▁형사":18089,"▁t":18090,"▁감독이":18091,"▁자원":18092,"▁거론":18093,"▁시장의":18094,"▁거짓":18095,"▁동아":18096,"학을":18097,"시험":18098,"▁얘기를":18099,"선은":18100,"▁있는데,":18101,"▁농업":18102,"▁심각한":18103,"공동":18104,"▁세상을":18105,"실에":18106,"▁징역":18107,"책을":18108,"▁이끌어":18109,"▁통해서":18110,"치게":18111,"▁선생님":18112,"▁등도":18113,"▁무시":18114,"▁상반기":18115,"▁연습":18116,"▁변화를":18117,"▁서민":18118,"▁내고":18119,"▁기회":18120,"▁창원":18121,"▁뒤에":18122,"▁대학생":18123,"▁80":18124,"생산":18125,"수한":18126,"작용":18127,"▁45":18128,"▁부상":18129,"▁누군":18130,"니,":18131,"▁나타난":18132,"16":18133,"▁죽음":18134,"▁고향":18135,"▁취소":18136,"국에":18137,"▁검색":18138,"▁깔":18139,"▁집을":18140,"▁수업":18141,"관련":18142,"▁50%":18143,"실이":18144,"▁질문에":18145,"간다.\n":18146,"▁듯한":18147,"화로":18148,"▁생각하는":18149,"▁수정":18150,"▁당장":18151,"특별":18152,"▁밟":18153,"▁포함해":18154,"▁운용":18155,"▁역대":18156,"위기":18157,"▁김태":18158,"동에":18159,"▁시장은":18160,"▁승리를":18161,"▁스토":18162,"▁힘이":18163,"%의":18164,").\n":18165,"▁보조":18166,"▁32":18167,"▁매매":18168,"주일":18169,"▁섭":18170,"▁보안":18171,"▁곳곳":18172,"▁대표가":18173,"▁공직":18174,"▁있음을":18175,"▁프로젝트":18176,"▁챔피언":18177,"률은":18178,"▁우려가":18179,"▁검증":18180,"모델":18181,"연맹":18182,"▁자격":18183,"거든요.\n":18184,"▁예고":18185,"13":18186,"▁모르겠":18187,"▁배출":18188,"▁싶어":18189,"▁33":18190,"전거":18191,"ol":18192,"▁쌀":18193,"▁않게":18194,"▁들었다.\n":18195,"▁육성":18196,"▁분류":18197,"▁&lt;":18198,"▁걸어":18199,"직한":18200,"타를":18201,"투데이":18202,"▁기자회":18203,"투자증권":18204,"리게":18205,"재는":18206,"세에":18207,"▁때도":18208,"럭시":18209,"혔다.\n":18210,"전쟁":18211,"!\"\n":18212,"▁숲":18213,"▁마침":18214,"▁성격":18215,"▁보였":18216,"▁알려진":18217,"▁답변":18218,"▁베트남":18219,"▁말은":18220,"▁긴장":18221,"[\n":18222,"'(":18223,"▁분명히":18224,"▁나아가":18225,"기사":18226,"▁값":18227,"▁어울":18228,"▁괜":18229,"▁자극":18230,"석은":18231,"▁나이":18232,"▁연말":18233,"▁디자":18234,"▁행사를":18235,"▁몰아":18236,"▁줄어들":18237,"▁상임":18238,"▁주차":18239,"▁쫓":18240,"▁가치를":18241,"”라고":18242,"교육청":18243,"’이":18244,"야말로":18245,"인터":18246,")으로":18247,"▁바닥":18248,"신의":18249,"주기":18250,"▁상당히":18251,"가격":18252,"▁관련,":18253,"수와":18254,"령을":18255,"▁적발":18256,"우드":18257,"▁폐지":18258,"▁춘":18259,"▁한다”고":18260,"▁아니라,":18261,"▁비행":18262,"▁곳에":18263,"▁주력":18264,"▁36":18265,"공개":18266,"골을":18267,"▁유출":18268,"▁사실은":18269,"▁뮤지":18270,"▁하였다.\n":18271,"▁구분":18272,"장관":18273,"▁높이":18274,"▁대하여":18275,"▁네트워크":18276,"전은":18277,"재판":18278,"▁이라며":18279,"▁그러한":18280,"▁최선을":18281,"▁단속":18282,"▁제거":18283,"▁호소":18284,"▁시작으로":18285,"동이":18286,"▁그만큼":18287,"인에":18288,"▁민주통합당":18289,"소에서":18290,"▁그렇지":18291,"▁'아":18292,"▁쇼핑":18293,"▁분위기":18294,"▁필요하":18295,"(E":18296,"▁완화":18297,"키는":18298,"행정":18299,"대와":18300,"이버":18301,"70":18302,"▁대부분의":18303,"▁메이저":18304,"▁실무":18305,"량의":18306,"분야":18307,"자료":18308,"▁KB":18309,"▁진단":18310,"들,":18311,"▁경선":18312,"▁점차":18313,"▁브라질":18314,"위원회는":18315,"인들은":18316,"▁o":18317,"받을":18318,"다”면서":18319,"▁몽":18320,"연합뉴스)":18321,"▁기업이":18322,"▁거리":18323,"▁원을":18324,"▁업종":18325,"▁경고":18326,"▁그곳":18327,"▁총리":18328,"▁지휘":18329,"▁맞추":18330,"유가":18331,"았다.":18332,"▁지분":18333,"▁활발":18334,"▁보낸":18335,"드러":18336,"설을":18337,"스포츠":18338,"▁195":18339,"소로":18340,"부로":18341,"억원으로":18342,"▁쪽으로":18343,"▁외환":18344,"▁탄생":18345,"주)":18346,"▁고급":18347,"▁후원":18348,"▁자료를":18349,"▁소화":18350,"분께":18351,"이닝":18352,"▁교사":18353,"▁완료":18354,"▁구글":18355,"(P":18356,"▁조기":18357,"▁6개월":18358,"▁충북":18359,"주에":18360,"지사":18361,"▁그들이":18362,"▁좁":18363,"▁페이스북":18364,"▁생존":18365,"포를":18366,"▁이스":18367,"▁상황에":18368,"▁시장에":18369,"▁취재":18370,"호텔":18371,"▁주가":18372,"제와":18373,"▁·":18374,"news":18375,"만은":18376,"ac":18377,"경쟁":18378,"▁묶":18379,"▁말에":18380,"공간":18381,"▁의미가":18382,"▁사용하는":18383,"▁일이다.\n":18384,"수에":18385,"▁이것이":18386,"▁아르":18387,"▁웃음을":18388,"▁풀어":18389,"▁소리를":18390,"▁확장":18391,"지자":18392,"▁공장":18393,"▁복잡":18394,"식의":18395,"▁줄어":18396,"▁시장에서":18397,"▁잡고":18398,"▁끌고":18399,"▁위원장은":18400,"의료":18401,"▁말할":18402,"함에":18403,"먼트":18404,"▁출판":18405,"▁간의":18406,"’로":18407,"건축":18408,"▁들려":18409,"크로":18410,"▁게시":18411,"▁떠오":18412,"▁무너":18413,"지검":18414,"▁시기":18415,"▁상황이다.\n":18416,"▁즐길":18417,"▁입학":18418,"▁건립":18419,"▁이같은":18420,"▁후에":18421,"────":18422,"다.\"\n":18423,"각을":18424,"▁신한":18425,"부산":18426,"EO":18427,"억달러":18428,"-0":18429,"웨어":18430,"▁말이다.\n":18431,"영상":18432,"직을":18433,"중국":18434,"었습니다.\n":18435,"▁아무런":18436,"▁먹는":18437,"▁적극적인":18438,"▁올렸다.\n":18439,"니어":18440,"▁법무":18441,"▁이거":18442,"▁저지":18443,"있다.\n":18444,"세는":18445,"▁내리":18446,"▁추가로":18447,"량은":18448,"▁상태다.\n":18449,"▁드러났다.\n":18450,"▁협상":18451,"프로그램":18452,"▁기타":18453,"▁정도의":18454,"▁쓰고":18455,"삼성":18456,"▁블랙":18457,"테인":18458,"처리":18459,"▁뚜":18460,"▁알려져":18461,"기능":18462,"’가":18463,"시장에서":18464,"▁구성된":18465,"면에":18466,"▁세워":18467,"▁사용할":18468,"▁어떠":18469,"이던":18470,"▁빠르게":18471,"▁능력을":18472,"축은행":18473,"결을":18474,"▁포항":18475,"▁끝난":18476,"▁혜택을":18477,"▁조용":18478,"▁분위기를":18479,"▁된다는":18480,"▁인증":18481,"▁s":18482,"돼야":18483,"민의":18484,"▁☞":18485,"심의":18486,"'과":18487,"▁스타일":18488,"▁이종":18489,"▁털어":18490,"▁공개된":18491,"▁들어서":18492,"▁분리":18493,"▁아이디어":18494,"▁1위를":18495,"판매":18496,"(K":18497,"▁하나로":18498,"▁박정":18499,"회,":18500,"▁대폭":18501,"▁지역에":18502,"TN":18503,"▁최대한":18504,"▁엉":18505,"▁한나라당":18506,"란히":18507,"▁아직도":18508,"id":18509,"▁본격적인":18510,"▁자리에":18511,"14":18512,"▁투수":18513,"▁경우는":18514,"▁호흡":18515,"▁일상":18516,"▁한마":18517,"해가":18518,"유를":18519,"▁말한":18520,"계에":18521,"관의":18522,"▁시장을":18523,"▁움직임":18524,"▁이유가":18525,"기까지":18526,"'라고":18527,"▁민주주의":18528,"2)":18529,"언론":18530,"▁10시":18531,"▁2005년":18532,"▁수십":18533,"▁운영하는":18534,"▁바꿔":18535,"됐다고":18536,"법은":18537,"▁계기로":18538,"▁따로":18539,"▁경기에서":18540,"▁2016년":18541,"▁내린":18542,"▁경우,":18543,"▁전문가들은":18544,"▁내용의":18545,"▁경제적":18546,"검사":18547,"▁있는지":18548,"관,":18549,"▁뛰어난":18550,"IA":18551,"▁만남":18552,"▁앨범":18553,"\"라며":18554,"▁포스코":18555,"▁컬":18556,"▁꿈을":18557,"5000":18558,"▁계산":18559,"수익":18560,"건이":18561,"회의에서":18562,"운용":18563,"▁고발":18564,"관에":18565,"▁필수":18566,"▁높다.\n":18567,"잖아요.\n":18568,"▁선호":18569,"상태":18570,"▁이행":18571,"▁기존의":18572,"▁브리":18573,"▁국회의원":18574,"무역":18575,"요\n":18576,"서트":18577,"▁이래":18578,"▁완전":18579,"▁교육을":18580,"아,":18581,"모를":18582,"독교":18583,"▁조언":18584,"▁접수":18585,"▁일자":18586,"부(":18587,"▁길이":18588,"▁정비":18589,"숨을":18590,"▁관련한":18591,"안의":18592,"▁어려움을":18593,"▁많았":18594,"▁CJ":18595,"▁충돌":18596,"▁연합":18597,"▁시장이":18598,"▁일제":18599,"'와":18600,"▁충격":18601,"▁다섯":18602,"▁늘어난":18603,"200":18604,"▁분석했다.\n":18605,"봉사":18606,"▁혼란":18607,"▁500":18608,"▁중에서":18609,"체는":18610,"▁194":18611,"▁회장이":18612,"▁고백":18613,"▁2000":18614,"법이":18615,"주,":18616,"자도":18617,"었고,":18618,"어져":18619,"▁특검":18620,"가락":18621,"▁체포":18622,"▁감독의":18623,"시와":18624,"▁입은":18625,"▁쥐":18626,"▁센터":18627,"버스":18628,"▁제외한":18629,"▁테러":18630,"▁학생들이":18631,"▁무대":18632,"엑스":18633,"▁피부":18634,"세의":18635,"테크":18636,"▁원자":18637,"▁비판했다.\n":18638,"▁설득":18639,"▁개봉":18640,"▁주최":18641,"▁결과가":18642,"▁맞춤":18643,"▁낼":18644,"▁힐":18645,"▁떼":18646,"▁법정":18647,"▁게다가":18648,"▁가격이":18649,"▁떨어져":18650,"▁사항":18651,"가,":18652,"▁벌써":18653,"▁카페":18654,"▁PC":18655,"▁그에":18656,"행한":18657,"소의":18658,"▁불가피":18659,"차는":18660,"▁어찌":18661,"▁모두가":18662,"인에게":18663,"사업을":18664,"▁얻어":18665,"▁눈이":18666,"내기":18667,"▁집계":18668,"▁필요하다.\n":18669,"▁경우도":18670,"▁다루":18671,"▁지닌":18672,"▁남녀":18673,"▁머리를":18674,"▁분노":18675,"▁섹":18676,"▁올린":18677,"▁기회가":18678,"▁독자":18679,"▁코스피":18680,"▁부품":18681,"17":18682,"▁내일":18683,"호의":18684,"▁확인할":18685,"앞으로":18686,"▁한국은":18687,"이너":18688,"▁셀":18689,"▁\"대":18690,"▁아니고":18691,"었을":18692,"▁부실":18693,"▁리그":18694,"▁경험을":18695,"작권":18696,"분간":18697,"경은":18698,"▁물을":18699,"▁동생":18700,"▁했다고":18701,"재로":18702,"치의":18703,"▁풍부":18704,"전화":18705,"▁좋지":18706,"▁내에":18707,"▁모으":18708,"▁물어":18709,"▁약간":18710,"배우":18711,"▁키워":18712,"▁부사":18713,"▁감정":18714,"세요.\n":18715,"ro":18716,"▁복합":18717,"▁초등학교":18718,"했다”고":18719,"학적":18720,"▁노무현":18721,"▁했습니다.\n":18722,"리트":18723,"▁대처":18724,"▁목표로":18725,"감한":18726,"▁이용할":18727,"▁공개했다.\n":18728,"▁가동":18729,"▁38":18730,"었다고":18731,"▁초대":18732,"▁보여주는":18733,"▁파견":18734,"▁박지":18735,"▁연방":18736,"▁명확":18737,"▁춤":18738,"▁의지를":18739,"▁대리":18740,"▁향상":18741,"-3":18742,"가?\n":18743,"▁조작":18744,"소송":18745,"▁상관":18746,"▁34":18747,"▁만들었다.\n":18748,"▁녹색":18749,"▁내게":18750,"▁트럼프":18751,"문의":18752,"집을":18753,"증이":18754,"이즈":18755,"▁면서":18756,"▁꺾":18757,"▁작업을":18758,"님은":18759,"▁차단":18760,"▁마친":18761,"리어":18762,"데일리":18763,"▁했는데":18764,"짜리":18765,"쇼핑":18766,"현대":18767,"▁틈":18768,"▁그렇다면":18769,"조사를":18770,"▁“그":18771,"음에도":18772,"▁진행된":18773,"복을":18774,"▁유로":18775,"드가":18776,"▁제공한다.\n":18777,"▁합격":18778,"▁선출":18779,"행이":18780,"▁손해":18781,"▁파괴":18782,"▁불리는":18783,"▁심리":18784,"▁d":18785,"안보":18786,"▁쟁":18787,"▁장애인":18788,"▁참고":18789,"▁사로":18790,"www":18791,"▁홍콩":18792,"▁목소리가":18793,"하다\n":18794,"습니까?\n":18795,"▁자전거":18796,"▁인구":18797,"기기":18798,"▁와서":18799,"▁건너":18800,"영업":18801,"▁비정규직":18802,"▁것일":18803,"다'며":18804,"▁계약을":18805,"▁으로":18806,"▁아니었다.\n":18807,"▁2개":18808,"회의를":18809,"▁매수":18810,"▁어쩌":18811,"▁셋":18812,"됐던":18813,"▁내는":18814,"▁수사를":18815,"▁문제로":18816,"▁달아":18817,"▁2천":18818,"▁목소리를":18819,"▁급증":18820,"향을":18821,"▁출입":18822,"▁버스":18823,"▁질병":18824,"▁대기":18825,"형이":18826,"▁실시간":18827,"▁보상":18828,"▁지상":18829,"▁없다\"고":18830,"카오":18831,"▁지하철":18832,"▁이중":18833,"▁적지":18834,"▁들이":18835,"▁텐":18836,"보기":18837,"▁조치를":18838,"대비":18839,"화학":18840,"▁외에":18841,"▁쇠":18842,"면,":18843,"▁비가":18844,"▁보여주":18845,"=\"":18846,"미디어":18847,"행위":18848,"정상":18849,"니까?\n":18850,"▁살해":18851,"구청":18852,"▁세상":18853,"▁기상":18854,"(0":18855,"▁샌":18856,"나이":18857,"▁시작된":18858,"▁\"이번":18859,"실로":18860,"측은":18861,"▁획득":18862,"▁영입":18863,"▁경계":18864,"억원,":18865,"▁300":18866,"▁여수":18867,"▁무기":18868,"▁주지":18869,"▁야당":18870,"가능":18871,"▁많았다.\n":18872,"▁최고위원":18873,"▁하더라도":18874,"▁펴":18875,"▁최우":18876,"▁사건이":18877,"▁수능":18878,"▁매달":18879,"▁악화":18880,"▁YTN":18881,"▁투쟁":18882,"사이트":18883,"▁정체":18884,"▁점이다.\n":18885,"▁작품을":18886,"소비":18887,"중인":18888,"데,":18889,"▁비서":18890,"▁받게":18891,"▁9시":18892,"▁이상이":18893,"▁유명한":18894,"라엘":18895,"▁덮":18896,"▁맡은":18897,"▁표준":18898,"▁어제":18899,"으니까":18900,"▁국내외":18901,"▁풀이":18902,"▁통제":18903,"▁우주":18904,"▁내용은":18905,"▁전화를":18906,"토록":18907,"자유":18908,"▁있다\n":18909,"지수":18910,"류가":18911,"▁하지만,":18912,"영이":18913,"ad":18914,"▁취약":18915,"지.\n":18916,"▁내정":18917,"▁여러분":18918,"▁끄":18919,"▁부회":18920,"▁별로":18921,"▁갖는":18922,"권은":18923,"▁아예":18924,"▁강하게":18925,"▁침해":18926,"▁시리즈":18927,"▁신속":18928,"▁돋":18929,"▁기아":18930,"▁훔":18931,"▁형태로":18932,"▁만들기":18933,"▁다이":18934,"▁엄청난":18935,"▁사람들을":18936,"한다\"고":18937,"▁한미":18938,"드라마":18939,"하시":18940,"▁위안":18941,"▁방문해":18942,"▁법인":18943,")도":18944,"▁자치":18945,"▁시내":18946,"▁도덕":18947,"체험":18948,"▁게재":18949,"텔레콤":18950,"조의":18951,"▁진정한":18952,"▁상무":18953,"▁재벌":18954,"▁느낄":18955,"▁연극":18956,"했다\"며":18957,"·고":18958,"▁편집":18959,"▁만들고":18960,"TE":18961,"▁현행":18962,"▁원전":18963,"연이":18964,"발을":18965,"▁부담을":18966,"었지만":18967,"▁선배":18968,"▁생활을":18969,"▁깜짝":18970,"되어야":18971,"▁받아들이":18972,"▁호남":18973,"▁알았":18974,"▁공통":18975,"▁해명":18976,"▁고교":18977,"▁열었다.\n":18978,"민주당":18979,"▁붉":18980,"▁10여":18981,"가스":18982,"▁반도":18983,"▁전형":18984,"▁나설":18985,"▁짧은":18986,"▁2004년":18987,"▁공항":18988,"▁접한":18989,"▁사이트":18990,"▁1등":18991,"치로":18992,"▁부채":18993,"▁감염":18994,"▁이르는":18995,".5%":18996,"▁핫":18997,"▁사로잡":18998,"▁소년":18999,"용차":19000,"he":19001,"▁금메달":19002,"’에서":19003,"▁현장에서":19004,"군을":19005,"▁그에게":19006,"씨와":19007,"▁쏘":19008,"▁권력":19009,"▁사회의":19010,"▁종료":19011,"▁시범":19012,"진보":19013,"▁사법":19014,"▁낮아":19015,"등록":19016,"▁비즈":19017,"▁이용한":19018,"▁둘러싼":19019,"▁축하":19020,"▁인용":19021,"▁소식을":19022,"▁공포":19023,"▁해주":19024,"▁아우":19025,"▁선박":19026,"▁간담":19027,"▁개방":19028,"▁무려":19029,"영의":19030,"▁절차":19031,"터테인":19032,"▁당사":19033,"▁프리미엄":19034,"팀은":19035,"▁붙잡":19036,"▁조심":19037,"더라":19038,"▁아이폰":19039,"▁이유를":19040,"▁쾌":19041,"▁재개":19042,"▁의혹을":19043,"달라":19044,"▁정규":19045,"패를":19046,"▁3차":19047,"아는":19048,"술을":19049,"▁부분이":19050,"▁평생":19051,"파이":19052,"▁보완":19053,"▁수준의":19054,"▁김정은":19055,"현재":19056,"▁비록":19057,"정과":19058,"문제":19059,"▁잉":19060,"▁적합":19061,"▁뿐이다.\n":19062,"▁150":19063,"▁부장":19064,"음에":19065,"▁때가":19066,"▁방지":19067,"하겠다\"고":19068,"포토":19069,"▁누리꾼":19070,"▁외에도":19071,"▁기계":19072,"▁르":19073,"▁인사를":19074,"▁대화를":19075,"총리":19076,"▁담긴":19077,"▁뜨거운":19078,"▁동네":19079,"▁후보를":19080,"말을":19081,"님을":19082,"어,":19083,"약품":19084,"▁창의":19085,"투표":19086,"▁품질":19087,"우스":19088,"▁가고":19089,"해왔다.\n":19090,"’라는":19091,"▁저렴":19092,"▁국회에서":19093,"▁언제나":19094,"▁스페인":19095,"▁곧바로":19096,"▁훌륭":19097,"보가":19098,"책임":19099,"물로":19100,"▁끊임":19101,"▁괜찮":19102,"▁여의도":19103,"▁발달":19104,"▁곳은":19105,"▁성남":19106,"놨다.\n":19107,"낸셜":19108,"▁전부터":19109,"민은":19110,"▁올해는":19111,"▁네티즌들은":19112,"ment":19113,"▁김재":19114,"▁기록한":19115,"▁오늘날":19116,"타임":19117,"▁준다.\n":19118,"▁동양":19119,"관계를":19120,"▁의원의":19121,"▁37":19122,"▁지자체":19123,"▁식으로":19124,"끄러":19125,"었고":19126,"▁담겨":19127,"브리":19128,"(G":19129,"층의":19130,"▁손에":19131,"박근혜":19132,"▁th":19133,"▁고정":19134,"▁개설":19135,"봐야":19136,"나다":19137,"▁법적":19138,"▁곁":19139,"▁때부터":19140,"문에":19141,"▁능력":19142,"조원":19143,"인도":19144,"나마":19145,"여야":19146,"▁유력":19147,"▁인공":19148,"산이":19149,"▁크다.\n":19150,"▁이건":19151,"▁냄":19152,"매매":19153,"▁놈":19154,"▁김씨는":19155,"여행":19156,"▁대통령과":19157,"▁근대":19158,"▁몰려":19159,"▁소프트":19160,"위에서":19161,"”고":19162,"▁강원도":19163,"▁없었던":19164,"▁그걸":19165,"▁수학":19166,"▁배제":19167,"▁이성":19168,"▁결정을":19169,"▁지역에서":19170,"▁안팎":19171,"▁연주":19172,"▁가야":19173,"오고":19174,"▁은퇴":19175,"▁이상을":19176,"▁마찬가지로":19177,"!!":19178,"▁끌었다.\n":19179,"의가":19180,"▁초과":19181,"▁잠재":19182,"▁경찰이":19183,"건강":19184,"▁겁니다.\n":19185,"▁사람들에게":19186,"▁벨":19187,"▁가리":19188,"희는":19189,"▁기독교":19190,"(이하":19191,"▁컸":19192,"▁것인":19193,"▁전망했다.\n":19194,"▁체육":19195,"▁의존":19196,"▁차지했다.\n":19197,"원한":19198,"▁공화":19199,"▁시가":19200,"▁재판부는":19201,"실한":19202,"장(":19203,"담을":19204,"▁참여한":19205,"어는":19206,"구,":19207,"놓은":19208,"▁훈":19209,"까요?\n":19210,"▁앞둔":19211,"▁이스라엘":19212,"금의":19213,"▁정상회담":19214,"▁공무":19215,"여성":19216,"▁웅":19217,"▁경기가":19218,"▁숫":19219,"▁채널":19220,"▁가게":19221,"▁인터뷰에서":19222,"▁내에서":19223,"▁유기":19224,"▁뮤지컬":19225,"▁대립":19226,"▁갤럭시":19227,"▁́":19228,"▁돈이":19229,"▁어른":19230,"폭력":19231,"▁유형":19232,"▁공을":19233,"양을":19234,"은행은":19235,"▁어려워":19236,"▁마음에":19237,"▁빗":19238,"▁인력":19239,"▁심지어":19240,"▁집에서":19241,"화하는":19242,"▁공공기관":19243,"▁과도":19244,"▁라디오":19245,"▁단기":19246,"백화점":19247,"었다는":19248,"이었다.":19249,"▁202":19250,"▁쏠":19251,"고가":19252,"▁붕":19253,"▁1회":19254,"문은":19255,"▁농촌":19256,"추진":19257,"(L":19258,"▁곽":19259,"▁너무나":19260,"최근":19261,"▁서서":19262,"▁동부":19263,"▁생겨":19264,"줘야":19265,"여서":19266,"▁모색":19267,"▁깊이":19268,"▁밴":19269,"▁무릎":19270,"자본":19271,"▁왜냐":19272,"▁베이징":19273,"▁섞":19274,"▁말로":19275,"▁훼손":19276,"▁통상":19277,"지법":19278,"성으로":19279,"▁요구하는":19280,"▁m":19281,"▁이라는":19282,"당에서":19283,"▁결론":19284,"▁터뜨":19285,"▁진정":19286,"실험":19287,"▁당연히":19288,"▁입증":19289,"당에":19290,"▁됩니다.\n":19291,"해,":19292,"신은":19293,"▁정부와":19294,"000만원":19295,"▁드러나":19296,"다\"\n":19297,"트리":19298,"자고":19299,"네요.\n":19300,"▁바라보":19301,"소속":19302,"르트":19303,"▁통보":19304,"▁무관":19305,"▁b":19306,"▁수시":19307,"op":19308,"▁달하는":19309,"▁단순히":19310,"청이":19311,"▁로마":19312,"시했다.\n":19313,"▁시·":19314,"▁소리가":19315,"경이":19316,"▁그날":19317,"▁사이의":19318,"▁환자":19319,"▁접촉":19320,"비의":19321,"캠프":19322,"▁상태에서":19323,"번에":19324,"▁가능성도":19325,"▁젖":19326,"▁순매":19327,"▁수주":19328,"에너지":19329,"▁3개월":19330,"일은":19331,"▁그건":19332,"▁부족한":19333,"ation":19334,"▁왼쪽":19335,"▁다저":19336,"▁맡아":19337,"▁합리":19338,"▁세금":19339,"현은":19340,"▁합동":19341,"▁전공":19342,"드의":19343,"겠다":19344,"▁멘":19345,"▁당부했다.\n":19346,"▁?\n":19347,"▁역사를":19348,"▁실행":19349,"▁천안":19350,"▁무게":19351,"▁무엇을":19352,"▁구간":19353,"▁세월호":19354,"감은":19355,"라스":19356,"▁그저":19357,"하니":19358,"회와":19359,"▁올랐":19360,"▁수준으로":19361,"▁편안":19362,"▁한정":19363,"하다가":19364,"▁화학":19365,"▁본다.\n":19366,"랫폼":19367,"▁생각하고":19368,"▁커뮤니티":19369,"▁이라":19370,"▁2002년":19371,"방이":19372,"▁꼼":19373,"▁그러므로":19374,"치료":19375,"▁독특":19376,"지요.\n":19377,"▁맞은":19378,"하려면":19379,"혁신":19380,"▁최초의":19381,"▁찾은":19382,"습니다.\"\n":19383,"▁점은":19384,"▁찌":19385,"스탄":19386,"▁물질":19387,"미가":19388,"▁맞이":19389,"▁승부":19390,"▁시스템을":19391,"▁세계적인":19392,"▁내내":19393,"▁열린다.\n":19394,"▁멀리":19395,"급을":19396,"아의":19397,"▁사이에서":19398,"www.":19399,"▁상당한":19400,"▁보지":19401,"(N":19402,"▁석유":19403,"▁합류":19404,"▁대상이":19405,"▁본격적으로":19406,"▁2루":19407,"▁결의":19408,"들이다.\n":19409,"사항":19410,"▁내지":19411,"▁아이들이":19412,"ED":19413,"▁이어질":19414,"웨이":19415,"▁김용":19416,"▁호주":19417,"▁얻을":19418,"연히":19419,"▁인프라":19420,"▁들어간":19421,"이야":19422,"소한":19423,"▁31":19424,"▁서울중앙":19425,"시장의":19426,"▁유일한":19427,"물에":19428,"조가":19429,"▁목적으로":19430,"▁정착":19431,"▁방향으로":19432,"▁빼앗":19433,"▁10%":19434,"라의":19435,"▁점도":19436,"▁업무를":19437,"▁유동":19438,"수원":19439,"마켓":19440,"▁담아":19441,"▁아이를":19442,"▁3만":19443,"▁6개":19444,"▁파트":19445,"▁2시":19446,"에게도":19447,"되고,":19448,"▁냈다.\n":19449,"▁김대":19450,"▁평가했다.\n":19451,"▁보일":19452,"이상":19453,"▁거야":19454,"▁물리":19455,"▁대단":19456,"건의":19457,"요?\"\n":19458,"▁하였":19459,"식과":19460,"▁빠진":19461,"환을":19462,"관과":19463,"▁일에":19464,"and":19465,"댓글":19466,"90":19467,"▁가구":19468,"▁택시":19469,"▁뒤를":19470,"▁좋아하는":19471,"▁물었다.\n":19472,"르지":19473,"▁부분을":19474,"려야":19475,"▁깨끗":19476,"지며":19477,"▁구제":19478,"▁55":19479,"로서의":19480,"▁연락":19481,"▁잘못된":19482,"▁이민":19483,"▁동기":19484,"▁시사":19485,"해져":19486,"액의":19487,"▁이혼":19488,"▁치료를":19489,"▁그녀가":19490,"▁마주":19491,"싱턴":19492,"▁도쿄":19493,"▁밀어":19494,"례를":19495,"▁장학":19496,"▁먹을":19497,"클럽":19498,"▁전세":19499,"▁분야에서":19500,"▁김현":19501,"▁지원하는":19502,"▁시상":19503,"수산":19504,"▁다행":19505,"▁느꼈":19506,"중공업":19507,"▁유니":19508,"▁일찍":19509,"▁모임":19510,"점,":19511,"ur":19512,"▁아니냐는":19513,"레이드":19514,"▁살인":19515,"▁변호사":19516,"▁예능":19517,"▁회장의":19518,"▁스페":19519,"▁투자를":19520,"까지도":19521,"▁“지":19522,"▁.\n":19523,"▁of":19524,"수요":19525,"산의":19526,"▁즐거":19527,"▁사업에":19528,"정,":19529,"▁아닙":19530,"▁이기":19531,"]\n":19532,"▁관계가":19533,"▁김연":19534,"연한":19535,"타운":19536,"▁화려한":19537,"▁넘게":19538,"▁SNS":19539,"▁설명이다.\n":19540,"▁폐쇄":19541,"as":19542,"로의":19543,"▁미치는":19544,"▁나아":19545,"▁즉시":19546,"▁곳에서":19547,"▁조절":19548,"▁2000년":19549,"▁광역":19550,"▁맑":19551,"▁인재":19552,"▁한다.":19553,"▁만날":19554,"▁지니":19555,"▁그렇죠.\n":19556,"소리":19557,"▁고등학교":19558,"▁방법으로":19559,"해주는":19560,"▁원인":19561,"다란":19562,"자(":19563,"▁요금":19564,"▁무상":19565,"▁즉각":19566,"▁어떠한":19567,"▁가계":19568,"▁에스":19569,"제,":19570,"▁결과,":19571,"소,":19572,"▁30분":19573,"시청":19574,"비,":19575,"▁나쁜":19576,"음악":19577,"▁답했다.\n":19578,"대전":19579,"▁7시":19580,"========":19581,"▁코스닥":19582,"주인":19583,"▁일방":19584,"▁신체":19585,"▁주어":19586,"▁폭력":19587,"리면":19588,"▁몸에":19589,"호선":19590,"▁시의":19591,"▁밖으로":19592,"▁미국과":19593,"▁휴대폰":19594,"▁사기":19595,"▁닫":19596,"▁객관":19597,"3)":19598,"▁튀":19599,"▁부담이":19600,"▁가난":19601,"▁이~":19602,"재정":19603,"▁실종":19604,"▁2012":19605,"▁토지":19606,"▁보관":19607,"연은":19608,"▁벼":19609,"▁100%":19610,"▁선수들이":19611,"▁목표를":19612,"▁참석해":19613,"단과":19614,"▁최강":19615,"미술":19616,"▁것이란":19617,"격한":19618,"▁구현":19619,"▁하던":19620,"▁고려해":19621,"▁화재":19622,"▁뒤로":19623,"임금":19624,"▁하나가":19625,"▁대거":19626,"▁세상에":19627,"▁검은":19628,"▁노사":19629,"▁미니":19630,"▁되기":19631,")'":19632,"▁공략":19633,"▁90":19634,"(B":19635,"▁실업":19636,"수석":19637,"▁않으":19638,"▁배려":19639,"▁옳":19640,"바닥":19641,"▁앤":19642,"▁나섰":19643,"▁거두":19644,"스에서":19645,"▁브리핑":19646,"▁비교적":19647,"▁부각":19648,"기념":19649,"ag":19650,"▁개인의":19651,"▁참여하는":19652,"준비":19653,"▁것”이라며":19654,"▁스위":19655,"▁상품을":19656,"우가":19657,"▁한마디":19658,"▁변화가":19659,"▁회계":19660,"진,":19661,"▁진행된다.\n":19662,"스런":19663,"’으로":19664,"▁우승을":19665,"▁미래를":19666,"라,":19667,"▁발생하는":19668,"▁매력":19669,"▁충청":19670,"▁죽은":19671,"▁통계":19672,"▁옷을":19673,"▁김기":19674,"름이":19675,"▁소환":19676,"생명":19677,"kg":19678,"내며":19679,"담당":19680,"▁속으로":19681,"▁나중에":19682,"위,":19683,"▁파이낸셜":19684,"▁하나는":19685,"▁마치고":19686,"▁점유":19687,"▁이대":19688,"▁강의":19689,"기금":19690,"▁아프리카":19691,"▁술을":19692,"▁잇따라":19693,"미는":19694,"▁11시":19695,"▁재배":19696,"하라고":19697,"▁중심의":19698,"른다.\n":19699,"▁\"우":19700,"▁193":19701,"▁없애":19702,"▁지속적인":19703,"(약":19704,"▁끝까지":19705,"니터":19706,"▁흰":19707,"~4":19708,"심한":19709,"된다는":19710,"▁지금도":19711,"로드":19712,"고기":19713,"촛불":19714,"▁이미지를":19715,"받았다.\n":19716,"▁사내":19717,"리면서":19718,"▁성능":19719,"▁기분":19720,"방에":19721,"▁전부":19722,"일에":19723,"500":19724,"되자":19725,"▁대결":19726,"선언":19727,"▁한층":19728,"▁유입":19729,"▁에이":19730,"여명이":19731,"im":19732,"▁겪고":19733,"▁현재의":19734,"민이":19735,"▁아이가":19736,"었는데":19737,"단으로":19738,"속에":19739,"▁닮":19740,"▁아나":19741,"▁응원":19742,"▁나타났":19743,"▁◆":19744,"▁원정":19745,"▁제약":19746,"랫동안":19747,"방의":19748,"▁발전을":19749,"▁수요가":19750,"성한":19751,"호,":19752,"연의":19753,"▁했다.":19754,"▁부부":19755,"▁활용해":19756,"시한":19757,"▁앞으로도":19758,"▁수백":19759,"로그":19760,"▁미사일":19761,"▁'201":19762,"다보":19763,"이와":19764,"▁빙":19765,"노총":19766,"▁절차를":19767,"▁토대로":19768,"끼리":19769,"▁시달":19770,"▁내렸다.\n":19771,"▁대책을":19772,"상공":19773,"대통령":19774,"▁햇":19775,"치에":19776,"신청":19777,"▁프로야구":19778,"즈를":19779,"▁42":19780,"▁그러자":19781,"▁제재":19782,"ont":19783,"▁\t\t":19784,"▁덕분에":19785,"▁가맹":19786,"▁화제":19787,"▁신임":19788,"진과":19789,"▁향한":19790,"CC":19791,"▁적응":19792,"▁찾을":19793,"해질":19794,"▁다녀":19795,"▁등이다.\n":19796,"▁뚜렷":19797,"▁팽":19798,"▁치러":19799,"▁여성의":19800,"(전":19801,"▁\"정":19802,"▁근처":19803,"▁출연해":19804,"▁모른다.\n":19805,"도에서":19806,"▁부당":19807,"▁운행":19808,"평균":19809,"하다\"고":19810,"▁수영":19811,"▁첨단":19812,"▁전주":19813,"▁39":19814,"겠다.\n":19815,"▁일각":19816,"▁\"저":19817,"이니":19818,"▁변동":19819,"▁얻은":19820,"비와":19821,"실은":19822,"▁개성공단":19823,"▁입법":19824,"▁생각한다.\n":19825,"▁클럽":19826,"▁관찰":19827,"설팅":19828,"통을":19829,"▁테마":19830,"▁6시":19831,"▁현상":19832,"양의":19833,"▁뚫":19834,"A)":19835,"▁추신":19836,"▁협약":19837,"▁냄새":19838,"물은":19839,"▁스피":19840,"해졌다.\n":19841,"▁2003년":19842,"▁에어":19843,"▁클라":19844,"해졌":19845,"▁흔히":19846,"▁전후":19847,"▁김동":19848,"종을":19849,"PC":19850,"가.\n":19851,"▁한강":19852,"▁것,":19853,"▁휩":19854,"sp":19855,"▁저항":19856,"대화":19857,"연대":19858,"마자":19859,"효과":19860,"▁\"당":19861,"▁증가한":19862,"▁신분":19863,"▁거예요.\n":19864,"▁환율":19865,"▁내달":19866,"▁농협":19867,"▁클래":19868,"▁임원":19869,"▁마시":19870,
[...]
